#ifndef HOMEROS_C_MODEL_H
#define HOMEROS_C_MODEL_H


unsigned int homeros_c_model_len = 28576;
unsigned char homeros_c_model[] = {
 0x20, 0x00, 0x00, 0x00, 0x54, 0x46, 0x4c, 0x33, 0x00, 0x00, 0x00, 0x00,
  0x14, 0x00, 0x20, 0x00, 0x1c, 0x00, 0x18, 0x00, 0x14, 0x00, 0x10, 0x00,
  0x0c, 0x00, 0x00, 0x00, 0x08, 0x00, 0x04, 0x00, 0x14, 0x00, 0x00, 0x00,
  0x1c, 0x00, 0x00, 0x00, 0x98, 0x00, 0x00, 0x00, 0xf0, 0x00, 0x00, 0x00,
  0xd4, 0x63, 0x00, 0x00, 0xe4, 0x63, 0x00, 0x00, 0x28, 0x6f, 0x00, 0x00,
  0x03, 0x00, 0x00, 0x00, 0x01, 0x00, 0x00, 0x00, 0x10, 0x00, 0x00, 0x00,
  0x00, 0x00, 0x0a, 0x00, 0x10, 0x00, 0x0c, 0x00, 0x08, 0x00, 0x04, 0x00,
  0x0a, 0x00, 0x00, 0x00, 0x0c, 0x00, 0x00, 0x00, 0x1c, 0x00, 0x00, 0x00,
  0x3c, 0x00, 0x00, 0x00, 0x0f, 0x00, 0x00, 0x00, 0x73, 0x65, 0x72, 0x76,
  0x69, 0x6e, 0x67, 0x5f, 0x64, 0x65, 0x66, 0x61, 0x75, 0x6c, 0x74, 0x00,
  0x01, 0x00, 0x00, 0x00, 0x04, 0x00, 0x00, 0x00, 0x90, 0xff, 0xff, 0xff,
  0x13, 0x00, 0x00, 0x00, 0x04, 0x00, 0x00, 0x00, 0x08, 0x00, 0x00, 0x00,
  0x64, 0x65, 0x6e, 0x73, 0x65, 0x5f, 0x31, 0x37, 0x00, 0x00, 0x00, 0x00,
  0x01, 0x00, 0x00, 0x00, 0x04, 0x00, 0x00, 0x00, 0x06, 0x9c, 0xff, 0xff,
  0x04, 0x00, 0x00, 0x00, 0x0e, 0x00, 0x00, 0x00, 0x64, 0x65, 0x6e, 0x73,
  0x65, 0x5f, 0x31, 0x32, 0x5f, 0x69, 0x6e, 0x70, 0x75, 0x74, 0x00, 0x00,
  0x02, 0x00, 0x00, 0x00, 0x34, 0x00, 0x00, 0x00, 0x04, 0x00, 0x00, 0x00,
  0xdc, 0xff, 0xff, 0xff, 0x16, 0x00, 0x00, 0x00, 0x04, 0x00, 0x00, 0x00,
  0x13, 0x00, 0x00, 0x00, 0x43, 0x4f, 0x4e, 0x56, 0x45, 0x52, 0x53, 0x49,
  0x4f, 0x4e, 0x5f, 0x4d, 0x45, 0x54, 0x41, 0x44, 0x41, 0x54, 0x41, 0x00,
  0x08, 0x00, 0x0c, 0x00, 0x08, 0x00, 0x04, 0x00, 0x08, 0x00, 0x00, 0x00,
  0x15, 0x00, 0x00, 0x00, 0x04, 0x00, 0x00, 0x00, 0x13, 0x00, 0x00, 0x00,
  0x6d, 0x69, 0x6e, 0x5f, 0x72, 0x75, 0x6e, 0x74, 0x69, 0x6d, 0x65, 0x5f,
  0x76, 0x65, 0x72, 0x73, 0x69, 0x6f, 0x6e, 0x00, 0x17, 0x00, 0x00, 0x00,
  0xe0, 0x62, 0x00, 0x00, 0xd8, 0x62, 0x00, 0x00, 0x48, 0x60, 0x00, 0x00,
  0x24, 0x60, 0x00, 0x00, 0x94, 0x5f, 0x00, 0x00, 0x04, 0x5f, 0x00, 0x00,
  0xf4, 0x5d, 0x00, 0x00, 0xe4, 0x5c, 0x00, 0x00, 0xd4, 0x5b, 0x00, 0x00,
  0x04, 0x2d, 0x00, 0x00, 0xf4, 0x1c, 0x00, 0x00, 0xe4, 0x0c, 0x00, 0x00,
  0xd4, 0x04, 0x00, 0x00, 0xc4, 0x00, 0x00, 0x00, 0xbc, 0x00, 0x00, 0x00,
  0xb4, 0x00, 0x00, 0x00, 0xac, 0x00, 0x00, 0x00, 0xa4, 0x00, 0x00, 0x00,
  0x9c, 0x00, 0x00, 0x00, 0x94, 0x00, 0x00, 0x00, 0x8c, 0x00, 0x00, 0x00,
  0x6c, 0x00, 0x00, 0x00, 0x04, 0x00, 0x00, 0x00, 0xde, 0x9c, 0xff, 0xff,
  0x04, 0x00, 0x00, 0x00, 0x58, 0x00, 0x00, 0x00, 0x0c, 0x00, 0x00, 0x00,
  0x08, 0x00, 0x0e, 0x00, 0x08, 0x00, 0x04, 0x00, 0x08, 0x00, 0x00, 0x00,
  0x10, 0x00, 0x00, 0x00, 0x28, 0x00, 0x00, 0x00, 0x00, 0x00, 0x06, 0x00,
  0x08, 0x00, 0x04, 0x00, 0x06, 0x00, 0x00, 0x00, 0x04, 0x00, 0x00, 0x00,
  0x01, 0x00, 0x00, 0x00, 0xea, 0x03, 0x00, 0x00, 0x00, 0x00, 0x0a, 0x00,
  0x10, 0x00, 0x0c, 0x00, 0x08, 0x00, 0x04, 0x00, 0x0a, 0x00, 0x00, 0x00,
  0x02, 0x00, 0x00, 0x00, 0x02, 0x00, 0x00, 0x00, 0x04, 0x00, 0x00, 0x00,
  0x06, 0x00, 0x00, 0x00, 0x32, 0x2e, 0x31, 0x30, 0x2e, 0x30, 0x00, 0x00,
  0x42, 0x9d, 0xff, 0xff, 0x04, 0x00, 0x00, 0x00, 0x10, 0x00, 0x00, 0x00,
  0x32, 0x2e, 0x33, 0x2e, 0x30, 0x00, 0x00, 0x00, 0x00, 0x00, 0x00, 0x00,
  0x00, 0x00, 0x00, 0x00, 0xd8, 0x92, 0xff, 0xff, 0xdc, 0x92, 0xff, 0xff,
  0xe0, 0x92, 0xff, 0xff, 0xe4, 0x92, 0xff, 0xff, 0xe8, 0x92, 0xff, 0xff,
  0xec, 0x92, 0xff, 0xff, 0xf0, 0x92, 0xff, 0xff, 0x7a, 0x9d, 0xff, 0xff,
  0x04, 0x00, 0x00, 0x00, 0x00, 0x04, 0x00, 0x00, 0x52, 0x7e, 0x7e, 0x77,
  0x00, 0x7e, 0x7e, 0x7d, 0x7e, 0x7e, 0x7e, 0x7e, 0x7e, 0x7e, 0x7e, 0x00,
  0x7e, 0x7e, 0x7e, 0x74, 0x7a, 0x7e, 0x7e, 0x7e, 0x7e, 0x00, 0x7b, 0x7e,
  0x64, 0x7e, 0x7e, 0x7e, 0x00, 0x00, 0x00, 0x00, 0x00, 0x00, 0x00, 0x00,
  0x00, 0x00, 0x00, 0x00, 0x00, 0x00, 0x00, 0x00, 0x00, 0x00, 0x00, 0x00,
  0x00, 0x00, 0x00, 0x00, 0x00, 0x00, 0x00, 0x00, 0x00, 0x00, 0x00, 0x00,
  0x00, 0x00, 0x00, 0x00, 0x00, 0x00, 0x00, 0x00, 0x00, 0x00, 0x00, 0x00,
  0x00, 0x00, 0x00, 0x00, 0x00, 0x00, 0x00, 0x00, 0x00, 0x00, 0x00, 0x00,
  0x00, 0x00, 0x00, 0x00, 0x00, 0x00, 0x00, 0x00, 0x52, 0x7e, 0x7e, 0x78,
  0x00, 0x7e, 0x7e, 0x7d, 0x7e, 0x7f, 0x7e, 0x7e, 0x7d, 0x7f, 0x7d, 0x00,
  0x7e, 0x7f, 0x7e, 0x75, 0x7a, 0x7e, 0x7e, 0x7e, 0x7e, 0x00, 0x7b, 0x7e,
  0x64, 0x7e, 0x7e, 0x7e, 0x52, 0x78, 0x78, 0x77, 0x00, 0x77, 0x78, 0x78,
  0x78, 0x77, 0x77, 0x78, 0x78, 0x78, 0x78, 0x00, 0x78, 0x77, 0x78, 0x75,
  0x78, 0x77, 0x77, 0x78, 0x78, 0x00, 0x78, 0x77, 0x64, 0x78, 0x78, 0x78,
  0x52, 0x7e, 0x7e, 0x78, 0x00, 0x7e, 0x7e, 0x7d, 0x7e, 0x7d, 0x7e, 0x7e,
  0x7d, 0x7e, 0x7e, 0x00, 0x7e, 0x7e, 0x7e, 0x74, 0x7b, 0x7e, 0x7d, 0x7e,
  0x7e, 0x00, 0x7b, 0x7e, 0x64, 0x7e, 0x7e, 0x7e, 0x52, 0x7e, 0x7e, 0x77,
  0x00, 0x7e, 0x7d, 0x7d, 0x7d, 0x7e, 0x7d, 0x7e, 0x7d, 0x7d, 0x7d, 0x00,
  0x7e, 0x7e, 0x7d, 0x74, 0x7b, 0x7e, 0x7e, 0x7e, 0x7e, 0x00, 0x7b, 0x7e,
  0x64, 0x7e, 0x7e, 0x7e, 0x52, 0x7d, 0x7e, 0x77, 0x00, 0x7d, 0x7e, 0x7d,
  0x7e, 0x7f, 0x7e, 0x7e, 0x7d, 0x7e, 0x7d, 0x00, 0x7e, 0x7e, 0x7e, 0x75,
  0x7b, 0x7e, 0x7e, 0x7e, 0x7e, 0x00, 0x7b, 0x7e, 0x64, 0x7e, 0x7e, 0x7e,
  0x52, 0x79, 0x79, 0x77, 0x00, 0x79, 0x7a, 0x7a, 0x79, 0x79, 0x79, 0x79,
  0x79, 0x79, 0x79, 0x00, 0x79, 0x79, 0x79, 0x75, 0x79, 0x79, 0x79, 0x79,
  0x7a, 0x00, 0x79, 0x79, 0x64, 0x79, 0x79, 0x79, 0x52, 0x7e, 0x7e, 0x78,
  0x00, 0x7e, 0x7e, 0x7d, 0x7e, 0x7e, 0x7e, 0x7e, 0x7d, 0x7e, 0x7d, 0x00,
  0x7e, 0x7e, 0x7d, 0x74, 0x7a, 0x7e, 0x7e, 0x7d, 0x7e, 0x00, 0x7b, 0x7e,
  0x64, 0x7d, 0x7e, 0x7e, 0x52, 0x7e, 0x7e, 0x77, 0x00, 0x7d, 0x7e, 0x7d,
  0x7e, 0x7e, 0x7e, 0x7e, 0x7d, 0x7f, 0x7e, 0x00, 0x7e, 0x7e, 0x7e, 0x75,
  0x7b, 0x7e, 0x7e, 0x7e, 0x7e, 0x00, 0x7b, 0x7e, 0x64, 0x7e, 0x7e, 0x7e,
  0x53, 0x7d, 0x7e, 0x77, 0x00, 0x7e, 0x7e, 0x7d, 0x7d, 0x7e, 0x7e, 0x7e,
  0x7d, 0x7e, 0x7d, 0x00, 0x7e, 0x7e, 0x7e, 0x75, 0x7a, 0x7e, 0x7e, 0x7e,
  0x7e, 0x00, 0x7b, 0x7e, 0x64, 0x7e, 0x7d, 0x7e, 0x52, 0x7e, 0x7e, 0x78,
  0x00, 0x7e, 0x7e, 0x7d, 0x7e, 0x7e, 0x7e, 0x7e, 0x7d, 0x7e, 0x7e, 0x00,
  0x7e, 0x7e, 0x7e, 0x75, 0x7a, 0x7d, 0x7e, 0x7e, 0x7e, 0x00, 0x7b, 0x7e,
  0x64, 0x7e, 0x7e, 0x7e, 0x52, 0x7e, 0x7e, 0x78, 0x00, 0x7e, 0x7e, 0x7d,
  0x7e, 0x7e, 0x7e, 0x7e, 0x7d, 0x7d, 0x7d, 0x00, 0x7e, 0x7e, 0x7d, 0x75,
  0x7a, 0x7d, 0x7e, 0x7e, 0x7e, 0x00, 0x7b, 0x7e, 0x64, 0x7d, 0x7e, 0x7d,
  0x52, 0x7d, 0x7e, 0x77, 0x00, 0x7e, 0x7e, 0x7d, 0x7e, 0x7f, 0x7e, 0x7e,
  0x7d, 0x7e, 0x7d, 0x00, 0x7e, 0x7e, 0x7e, 0x74, 0x7a, 0x7e, 0x7e, 0x7e,
  0x7e, 0x00, 0x7b, 0x7e, 0x64, 0x7e, 0x7e, 0x7e, 0x52, 0x7e, 0x7e, 0x77,
  0x00, 0x7e, 0x7e, 0x7d, 0x7e, 0x7e, 0x7e, 0x7e, 0x7d, 0x7e, 0x7e, 0x00,
  0x7e, 0x7e, 0x7e, 0x75, 0x7b, 0x7e, 0x7d, 0x7e, 0x7e, 0x00, 0x7b, 0x7e,
  0x64, 0x7e, 0x7e, 0x7e, 0x52, 0x7e, 0x7e, 0x77, 0x00, 0x7e, 0x7e, 0x7d,
  0x7e, 0x7e, 0x7e, 0x7e, 0x7d, 0x7e, 0x7d, 0x00, 0x7e, 0x7f, 0x7e, 0x75,
  0x7a, 0x7e, 0x7d, 0x7e, 0x7e, 0x00, 0x7b, 0x7e, 0x64, 0x7e, 0x7e, 0x7e,
  0x52, 0x7d, 0x7f, 0x78, 0x00, 0x7e, 0x7e, 0x7d, 0x7e, 0x7f, 0x7e, 0x7e,
  0x7d, 0x7f, 0x7d, 0x00, 0x7e, 0x7f, 0x7e, 0x74, 0x7a, 0x7e, 0x7e, 0x7e,
  0x7e, 0x00, 0x7b, 0x7e, 0x64, 0x7e, 0x7e, 0x7f, 0x52, 0x7d, 0x7e, 0x77,
  0x00, 0x7e, 0x7e, 0x7d, 0x7e, 0x7d, 0x7d, 0x7d, 0x7d, 0x7e, 0x7e, 0x00,
  0x7e, 0x7e, 0x7e, 0x75, 0x7b, 0x7e, 0x7e, 0x7e, 0x7e, 0x00, 0x7b, 0x7d,
  0x64, 0x7d, 0x7d, 0x7d, 0x52, 0x7e, 0x7d, 0x77, 0x00, 0x7d, 0x7e, 0x7d,
  0x7e, 0x7e, 0x7d, 0x7d, 0x7d, 0x7e, 0x7e, 0x00, 0x7d, 0x7e, 0x7e, 0x74,
  0x7a, 0x7e, 0x7e, 0x7d, 0x7e, 0x00, 0x7b, 0x7e, 0x64, 0x7d, 0x7e, 0x7e,
  0x53, 0x7d, 0x7e, 0x77, 0x00, 0x7e, 0x7e, 0x7d, 0x7e, 0x7e, 0x7e, 0x7e,
  0x7d, 0x7e, 0x7d, 0x00, 0x7e, 0x7e, 0x7e, 0x75, 0x7a, 0x7e, 0x7e, 0x7e,
  0x7e, 0x00, 0x7b, 0x7e, 0x64, 0x7e, 0x7e, 0x7e, 0x52, 0x7e, 0x7d, 0x78,
  0x00, 0x7d, 0x7d, 0x7d, 0x7d, 0x7d, 0x7d, 0x7d, 0x7d, 0x7e, 0x7d, 0x00,
  0x7d, 0x7d, 0x7d, 0x75, 0x7b, 0x7d, 0x7d, 0x7d, 0x7d, 0x00, 0x7b, 0x7d,
  0x64, 0x7d, 0x7d, 0x7e, 0x00, 0x00, 0x00, 0x00, 0x00, 0x00, 0x00, 0x00,
  0x00, 0x00, 0x00, 0x00, 0x00, 0x00, 0x00, 0x00, 0x00, 0x00, 0x00, 0x00,
  0x00, 0x00, 0x00, 0x00, 0x00, 0x00, 0x00, 0x00, 0x00, 0x00, 0x00, 0x00,
  0x52, 0x7d, 0x7e, 0x77, 0x00, 0x7e, 0x7e, 0x7d, 0x7e, 0x7e, 0x7e, 0x7e,
  0x7d, 0x7e, 0x7e, 0x00, 0x7e, 0x7e, 0x7e, 0x75, 0x7b, 0x7d, 0x7e, 0x7e,
  0x7e, 0x00, 0x7b, 0x7e, 0x64, 0x7e, 0x7e, 0x7e, 0x52, 0x7d, 0x7e, 0x77,
  0x00, 0x7d, 0x7e, 0x7d, 0x7e, 0x7e, 0x7e, 0x7e, 0x7e, 0x7e, 0x7d, 0x00,
  0x7e, 0x7e, 0x7e, 0x75, 0x7b, 0x7e, 0x7e, 0x7e, 0x7e, 0x00, 0x7b, 0x7e,
  0x64, 0x7e, 0x7e, 0x7e, 0x52, 0x7e, 0x7e, 0x78, 0x00, 0x7d, 0x7d, 0x7d,
  0x7e, 0x7d, 0x7e, 0x7e, 0x7d, 0x7e, 0x7e, 0x00, 0x7e, 0x7d, 0x7d, 0x75,
  0x7b, 0x7e, 0x7d, 0x7e, 0x7e, 0x00, 0x7b, 0x7e, 0x64, 0x7e, 0x7d, 0x7e,
  0x52, 0x7e, 0x7e, 0x78, 0x00, 0x7e, 0x7e, 0x7d, 0x7e, 0x7e, 0x7d, 0x7e,
  0x7d, 0x7e, 0x7e, 0x00, 0x7e, 0x7e, 0x7d, 0x75, 0x7b, 0x7e, 0x7e, 0x7e,
  0x7d, 0x00, 0x7b, 0x7e, 0x64, 0x7d, 0x7e, 0x7d, 0x52, 0x7d, 0x7e, 0x77,
  0x00, 0x7e, 0x7e, 0x7d, 0x7e, 0x7f, 0x7e, 0x7e, 0x7d, 0x7e, 0x7d, 0x00,
  0x7e, 0x7f, 0x7f, 0x74, 0x7a, 0x7e, 0x7e, 0x7e, 0x7e, 0x00, 0x7b, 0x7e,
  0x64, 0x7f, 0x7e, 0x7f, 0x00, 0x00, 0x00, 0x00, 0x00, 0x00, 0x00, 0x00,
  0x00, 0x00, 0x00, 0x00, 0x00, 0x00, 0x00, 0x00, 0x00, 0x00, 0x00, 0x00,
  0x00, 0x00, 0x00, 0x00, 0x00, 0x00, 0x00, 0x00, 0x00, 0x00, 0x00, 0x00,
  0x52, 0x7d, 0x7d, 0x78, 0x00, 0x7d, 0x7d, 0x7d, 0x7e, 0x7d, 0x7d, 0x7d,
  0x7d, 0x7d, 0x7d, 0x00, 0x7d, 0x7d, 0x7d, 0x75, 0x7a, 0x7d, 0x7d, 0x7d,
  0x7d, 0x00, 0x7b, 0x7d, 0x64, 0x7d, 0x7d, 0x7d, 0x52, 0x7c, 0x7c, 0x77,
  0x00, 0x7c, 0x7c, 0x7c, 0x7c, 0x7c, 0x7c, 0x7c, 0x7c, 0x7c, 0x7c, 0x00,
  0x7c, 0x7c, 0x7c, 0x75, 0x7b, 0x7c, 0x7c, 0x7c, 0x7c, 0x00, 0x7b, 0x7c,
  0x64, 0x7c, 0x7c, 0x7c, 0x00, 0x00, 0x00, 0x00, 0x00, 0x00, 0x00, 0x00,
  0x00, 0x00, 0x00, 0x00, 0x00, 0x00, 0x00, 0x00, 0x00, 0x00, 0x00, 0x00,
  0x00, 0x00, 0x00, 0x00, 0x00, 0x00, 0x00, 0x00, 0x00, 0x00, 0x00, 0x00,
  0x86, 0xa1, 0xff, 0xff, 0x04, 0x00, 0x00, 0x00, 0x00, 0x08, 0x00, 0x00,
  0x52, 0x52, 0x52, 0x00, 0x52, 0x52, 0x52, 0x52, 0x52, 0x52, 0x00, 0x52,
  0x52, 0x52, 0x52, 0x52, 0x52, 0x52, 0x52, 0x52, 0x52, 0x00, 0x52, 0x00,
  0x52, 0x52, 0x52, 0x52, 0x52, 0x52, 0x52, 0x52, 0x52, 0x52, 0x52, 0x52,
  0x52, 0x52, 0x39, 0x52, 0x52, 0x52, 0x52, 0x52, 0x52, 0x52, 0x52, 0x52,
  0x52, 0x52, 0x52, 0x52, 0x52, 0x00, 0x52, 0x52, 0x52, 0x52, 0x52, 0x52,
  0x52, 0x52, 0x52, 0x52, 0x7e, 0x7e, 0x7e, 0x00, 0x7e, 0x7d, 0x7d, 0x7e,
  0x7e, 0x7e, 0x00, 0x7d, 0x7d, 0x7d, 0x7d, 0x7e, 0x7e, 0x7e, 0x7e, 0x7d,
  0x7e, 0x00, 0x73, 0x00, 0x7d, 0x7e, 0x7e, 0x7d, 0x7e, 0x7e, 0x7d, 0x7d,
  0x7d, 0x7e, 0x7e, 0x7d, 0x7d, 0x7e, 0x39, 0x7e, 0x7e, 0x7d, 0x7e, 0x79,
  0x7e, 0x7d, 0x7e, 0x7e, 0x7d, 0x7e, 0x7e, 0x7e, 0x7d, 0x00, 0x7d, 0x7e,
  0x7e, 0x7d, 0x7e, 0x7d, 0x7e, 0x7d, 0x7d, 0x7e, 0x7e, 0x7e, 0x7e, 0x00,
  0x7f, 0x7d, 0x7d, 0x7e, 0x7e, 0x7e, 0x00, 0x7e, 0x7e, 0x7e, 0x7e, 0x7e,
  0x7e, 0x7e, 0x7e, 0x7e, 0x7e, 0x00, 0x73, 0x00, 0x7e, 0x7e, 0x7e, 0x7d,
  0x7e, 0x7e, 0x7e, 0x7e, 0x7e, 0x7f, 0x7f, 0x7e, 0x7e, 0x7e, 0x39, 0x7e,
  0x7e, 0x7c, 0x7e, 0x79, 0x7e, 0x7e, 0x7e, 0x7e, 0x7e, 0x7e, 0x7e, 0x7e,
  0x7e, 0x00, 0x7e, 0x7e, 0x7e, 0x7e, 0x7e, 0x7e, 0x7e, 0x7d, 0x7e, 0x7e,
  0x77, 0x78, 0x77, 0x00, 0x77, 0x77, 0x78, 0x77, 0x77, 0x78, 0x00, 0x78,
  0x77, 0x78, 0x77, 0x77, 0x78, 0x77, 0x78, 0x77, 0x78, 0x00, 0x74, 0x00,
  0x77, 0x78, 0x77, 0x77, 0x78, 0x77, 0x78, 0x78, 0x77, 0x77, 0x77, 0x78,
  0x77, 0x77, 0x39, 0x77, 0x77, 0x77, 0x78, 0x78, 0x78, 0x78, 0x77, 0x77,
  0x77, 0x78, 0x77, 0x77, 0x77, 0x00, 0x77, 0x77, 0x77, 0x77, 0x77, 0x78,
  0x77, 0x77, 0x77, 0x77, 0x00, 0x00, 0x00, 0x00, 0x00, 0x00, 0x00, 0x00,
  0x00, 0x00, 0x00, 0x00, 0x00, 0x00, 0x00, 0x00, 0x00, 0x00, 0x00, 0x00,
  0x00, 0x00, 0x00, 0x00, 0x00, 0x00, 0x00, 0x00, 0x00, 0x00, 0x00, 0x00,
  0x00, 0x00, 0x00, 0x00, 0x00, 0x00, 0x00, 0x00, 0x00, 0x00, 0x00, 0x00,
  0x00, 0x00, 0x00, 0x00, 0x00, 0x00, 0x00, 0x00, 0x00, 0x00, 0x00, 0x00,
  0x00, 0x00, 0x00, 0x00, 0x00, 0x00, 0x00, 0x00, 0x7d, 0x7e, 0x7e, 0x00,
  0x7e, 0x7d, 0x7d, 0x7e, 0x7e, 0x7e, 0x00, 0x7e, 0x7e, 0x7d, 0x7e, 0x7e,
  0x7e, 0x7e, 0x7e, 0x7e, 0x7e, 0x00, 0x73, 0x00, 0x7e, 0x7e, 0x7e, 0x7d,
  0x7e, 0x7e, 0x7e, 0x7e, 0x7e, 0x7e, 0x7e, 0x7e, 0x7e, 0x7e, 0x39, 0x7e,
  0x7e, 0x7d, 0x7e, 0x7a, 0x7e, 0x7e, 0x7e, 0x7e, 0x7e, 0x7e, 0x7e, 0x7e,
  0x7e, 0x00, 0x7e, 0x7e, 0x7e, 0x7e, 0x7e, 0x7e, 0x7e, 0x7d, 0x7e, 0x7e,
  0x7e, 0x7e, 0x7d, 0x00, 0x7e, 0x7d, 0x7d, 0x7e, 0x7e, 0x7e, 0x00, 0x7e,
  0x7e, 0x7e, 0x7e, 0x7e, 0x7e, 0x7e, 0x7e, 0x7e, 0x7e, 0x00, 0x73, 0x00,
  0x7e, 0x7e, 0x7e, 0x7e, 0x7e, 0x7e, 0x7e, 0x7e, 0x7e, 0x7e, 0x7e, 0x7e,
  0x7e, 0x7e, 0x39, 0x7e, 0x7e, 0x7c, 0x7e, 0x7a, 0x7e, 0x7e, 0x7e, 0x7e,
  0x7e, 0x7e, 0x7e, 0x7e, 0x7e, 0x00, 0x7e, 0x7e, 0x7e, 0x7e, 0x7e, 0x7e,
  0x7e, 0x7d, 0x7e, 0x7e, 0x7d, 0x7d, 0x7d, 0x00, 0x7d, 0x7d, 0x7d, 0x7d,
  0x7d, 0x7d, 0x00, 0x7d, 0x7d, 0x7d, 0x7d, 0x7d, 0x7d, 0x7d, 0x7d, 0x7d,
  0x7d, 0x00, 0x74, 0x00, 0x7d, 0x7d, 0x7d, 0x7d, 0x7d, 0x7d, 0x7d, 0x7d,
  0x7d, 0x7d, 0x7d, 0x7d, 0x7d, 0x7d, 0x39, 0x7e, 0x7d, 0x7d, 0x7d, 0x7a,
  0x7d, 0x7d, 0x7d, 0x7d, 0x7d, 0x7d, 0x7d, 0x7d, 0x7d, 0x00, 0x7d, 0x7d,
  0x7d, 0x7d, 0x7d, 0x7d, 0x7d, 0x7d, 0x7d, 0x7d, 0x7e, 0x7e, 0x7e, 0x00,
  0x7e, 0x7d, 0x7d, 0x7e, 0x7e, 0x7e, 0x00, 0x7e, 0x7e, 0x7e, 0x7e, 0x7e,
  0x7e, 0x7e, 0x7e, 0x7e, 0x7e, 0x00, 0x73, 0x00, 0x7e, 0x7e, 0x7e, 0x7d,
  0x7e, 0x7e, 0x7e, 0x7e, 0x7e, 0x7e, 0x7e, 0x7e, 0x7e, 0x7e, 0x39, 0x7e,
  0x7e, 0x7d, 0x7e, 0x7a, 0x7e, 0x7e, 0x7e, 0x7e, 0x7e, 0x7e, 0x7e, 0x7e,
  0x7e, 0x00, 0x7e, 0x7e, 0x7e, 0x7e, 0x7e, 0x7e, 0x7e, 0x7d, 0x7e, 0x7e,
  0x7e, 0x7e, 0x7e, 0x00, 0x7f, 0x7d, 0x7d, 0x7e, 0x7e, 0x7e, 0x00, 0x7e,
  0x7e, 0x7d, 0x7f, 0x7e, 0x7e, 0x7f, 0x7e, 0x7e, 0x7e, 0x00, 0x74, 0x00,
  0x7e, 0x7f, 0x7e, 0x7d, 0x7e, 0x7f, 0x7e, 0x7e, 0x7e, 0x7f, 0x7f, 0x7e,
  0x7e, 0x7f, 0x39, 0x7e, 0x7f, 0x7d, 0x7e, 0x79, 0x7e, 0x7e, 0x7e, 0x7f,
  0x7e, 0x7f, 0x7e, 0x7e, 0x7e, 0x00, 0x7e, 0x7e, 0x7f, 0x7e, 0x7e, 0x7e,
  0x7e, 0x7d, 0x7f, 0x7e, 0x7e, 0x7e, 0x7e, 0x00, 0x7e, 0x7d, 0x7d, 0x7e,
  0x7e, 0x7e, 0x00, 0x7e, 0x7e, 0x7d, 0x7e, 0x7e, 0x7e, 0x7e, 0x7e, 0x7e,
  0x7e, 0x00, 0x73, 0x00, 0x7e, 0x7e, 0x7e, 0x7d, 0x7e, 0x7e, 0x7e, 0x7e,
  0x7e, 0x7e, 0x7e, 0x7e, 0x7e, 0x7e, 0x39, 0x7e, 0x7e, 0x7d, 0x7e, 0x79,
  0x7e, 0x7e, 0x7e, 0x7e, 0x7e, 0x7e, 0x7e, 0x7e, 0x7d, 0x00, 0x7e, 0x7e,
  0x7e, 0x7e, 0x7e, 0x7e, 0x7e, 0x7d, 0x7e, 0x7e, 0x7d, 0x7e, 0x7e, 0x00,
  0x7e, 0x7d, 0x7d, 0x7e, 0x7e, 0x7e, 0x00, 0x7e, 0x7e, 0x7e, 0x7e, 0x7e,
  0x7e, 0x7e, 0x7e, 0x7e, 0x7e, 0x00, 0x73, 0x00, 0x7e, 0x7e, 0x7e, 0x7d,
  0x7e, 0x7e, 0x7e, 0x7e, 0x7e, 0x7e, 0x7e, 0x7e, 0x7e, 0x7e, 0x39, 0x7e,
  0x7e, 0x7d, 0x7e, 0x7a, 0x7e, 0x7e, 0x7e, 0x7e, 0x7e, 0x7e, 0x7e, 0x7e,
  0x7e, 0x00, 0x7e, 0x7e, 0x7e, 0x7e, 0x7e, 0x7e, 0x7e, 0x7d, 0x7e, 0x7e,
  0x7d, 0x7d, 0x7e, 0x00, 0x7d, 0x7d, 0x7c, 0x7e, 0x7d, 0x7d, 0x00, 0x7d,
  0x7d, 0x7d, 0x7d, 0x7e, 0x7d, 0x7d, 0x7d, 0x7d, 0x7d, 0x00, 0x73, 0x00,
  0x7d, 0x7d, 0x7e, 0x7d, 0x7d, 0x7d, 0x7d, 0x7d, 0x7e, 0x7d, 0x7d, 0x7d,
  0x7d, 0x7d, 0x39, 0x7d, 0x7d, 0x7d, 0x7e, 0x7a, 0x7d, 0x7d, 0x7d, 0x7d,
  0x7d, 0x7d, 0x7e, 0x7e, 0x7d, 0x00, 0x7d, 0x7d, 0x7d, 0x7d, 0x7d, 0x7d,
  0x7d, 0x7d, 0x7e, 0x7d, 0x7e, 0x7e, 0x7e, 0x00, 0x7f, 0x7d, 0x7d, 0x7e,
  0x7e, 0x7e, 0x00, 0x7e, 0x7e, 0x7d, 0x7f, 0x7e, 0x7e, 0x7e, 0x7e, 0x7e,
  0x7e, 0x00, 0x73, 0x00, 0x7e, 0x7e, 0x7e, 0x7d, 0x7e, 0x7e, 0x7f, 0x7e,
  0x7e, 0x7f, 0x7f, 0x7e, 0x7e, 0x7f, 0x39, 0x7e, 0x7e, 0x7d, 0x7e, 0x7a,
  0x7d, 0x7e, 0x7e, 0x7f, 0x7e, 0x7e, 0x7e, 0x7e, 0x7e, 0x00, 0x7e, 0x7e,
  0x7e, 0x7e, 0x7e, 0x7e, 0x7e, 0x7d, 0x7e, 0x7e, 0x7d, 0x7e, 0x7e, 0x00,
  0x7e, 0x7d, 0x7d, 0x7d, 0x7e, 0x7e, 0x00, 0x7e, 0x7d, 0x7e, 0x7d, 0x7d,
  0x7e, 0x7e, 0x7e, 0x7d, 0x7e, 0x00, 0x73, 0x00, 0x7e, 0x7e, 0x7d, 0x7e,
  0x7e, 0x7d, 0x7e, 0x7d, 0x7e, 0x7d, 0x7d, 0x7e, 0x7e, 0x7d, 0x39, 0x7e,
  0x7d, 0x7d, 0x7e, 0x7a, 0x7e, 0x7e, 0x7e, 0x7d, 0x7e, 0x7e, 0x7e, 0x7d,
  0x7e, 0x00, 0x7d, 0x7e, 0x7e, 0x7d, 0x7e, 0x7d, 0x7e, 0x7d, 0x7e, 0x7e,
  0x00, 0x00, 0x00, 0x00, 0x00, 0x00, 0x00, 0x00, 0x00, 0x00, 0x00, 0x00,
  0x00, 0x00, 0x00, 0x00, 0x00, 0x00, 0x00, 0x00, 0x00, 0x00, 0x00, 0x00,
  0x00, 0x00, 0x00, 0x00, 0x00, 0x00, 0x00, 0x00, 0x00, 0x00, 0x00, 0x00,
  0x00, 0x00, 0x00, 0x00, 0x00, 0x00, 0x00, 0x00, 0x00, 0x00, 0x00, 0x00,
  0x00, 0x00, 0x00, 0x00, 0x00, 0x00, 0x00, 0x00, 0x00, 0x00, 0x00, 0x00,
  0x00, 0x00, 0x00, 0x00, 0x7e, 0x7e, 0x7e, 0x00, 0x7e, 0x7d, 0x7d, 0x7e,
  0x7e, 0x7e, 0x00, 0x7e, 0x7e, 0x7d, 0x7e, 0x7e, 0x7e, 0x7e, 0x7e, 0x7e,
  0x7e, 0x00, 0x73, 0x00, 0x7e, 0x7e, 0x7e, 0x7d, 0x7e, 0x7e, 0x7e, 0x7e,
  0x7e, 0x7e, 0x7e, 0x7e, 0x7e, 0x7e, 0x39, 0x7e, 0x7e, 0x7d, 0x7e, 0x7a,
  0x7e, 0x7e, 0x7e, 0x7e, 0x7e, 0x7e, 0x7e, 0x7e, 0x7e, 0x00, 0x7e, 0x7e,
  0x7e, 0x7e, 0x7e, 0x7e, 0x7e, 0x7d, 0x7e, 0x7e, 0x7e, 0x7e, 0x7e, 0x00,
  0x7f, 0x7d, 0x7d, 0x7e, 0x7e, 0x7e, 0x00, 0x7e, 0x7f, 0x7d, 0x7f, 0x7f,
  0x7e, 0x7f, 0x7e, 0x7e, 0x7f, 0x00, 0x74, 0x00, 0x7f, 0x7e, 0x7e, 0x7e,
  0x7e, 0x7e, 0x7e, 0x7e, 0x7e, 0x7f, 0x7f, 0x7e, 0x7e, 0x7f, 0x39, 0x7e,
  0x7f, 0x7d, 0x7e, 0x7a, 0x7d, 0x7e, 0x7e, 0x7e, 0x7e, 0x7f, 0x7e, 0x7e,
  0x7e, 0x00, 0x7e, 0x7e, 0x7f, 0x7e, 0x7e, 0x7e, 0x7e, 0x7d, 0x7e, 0x7e,
  0x7e, 0x7e, 0x7e, 0x00, 0x7f, 0x7d, 0x7d, 0x7e, 0x7e, 0x7e, 0x00, 0x7e,
  0x7e, 0x7d, 0x7f, 0x7e, 0x7e, 0x7f, 0x7e, 0x7e, 0x7e, 0x00, 0x73, 0x00,
  0x7e, 0x7e, 0x7e, 0x7e, 0x7e, 0x7e, 0x7e, 0x7e, 0x7e, 0x7e, 0x7f, 0x7e,
  0x7e, 0x7e, 0x39, 0x7e, 0x7e, 0x7d, 0x7e, 0x7a, 0x7e, 0x7e, 0x7e, 0x7f,
  0x7e, 0x7e, 0x7e, 0x7e, 0x7e, 0x00, 0x7e, 0x7e, 0x7e, 0x7e, 0x7e, 0x7e,
  0x7e, 0x7d, 0x7e, 0x7e, 0x75, 0x75, 0x75, 0x00, 0x75, 0x75, 0x75, 0x75,
  0x74, 0x75, 0x00, 0x75, 0x75, 0x75, 0x75, 0x75, 0x75, 0x75, 0x75, 0x75,
  0x75, 0x00, 0x73, 0x00, 0x75, 0x75, 0x75, 0x75, 0x75, 0x75, 0x75, 0x75,
  0x75, 0x75, 0x75, 0x75, 0x75, 0x75, 0x39, 0x75, 0x75, 0x75, 0x75, 0x75,
  0x75, 0x75, 0x75, 0x74, 0x74, 0x75, 0x75, 0x75, 0x75, 0x00, 0x75, 0x75,
  0x75, 0x75, 0x75, 0x75, 0x75, 0x75, 0x75, 0x75, 0x7b, 0x7b, 0x7a, 0x00,
  0x7a, 0x7a, 0x7b, 0x7a, 0x7b, 0x7b, 0x00, 0x7b, 0x7b, 0x7b, 0x7b, 0x7b,
  0x7b, 0x7b, 0x7a, 0x7b, 0x7b, 0x00, 0x74, 0x00, 0x7b, 0x7b, 0x7a, 0x7b,
  0x7a, 0x7a, 0x7b, 0x7b, 0x7b, 0x7a, 0x7a, 0x7a, 0x7b, 0x7a, 0x39, 0x7a,
  0x7a, 0x7b, 0x7b, 0x7a, 0x7b, 0x7b, 0x7b, 0x7b, 0x7b, 0x7b, 0x7b, 0x7b,
  0x7b, 0x00, 0x7b, 0x7a, 0x7b, 0x7a, 0x7a, 0x7b, 0x7b, 0x7b, 0x7a, 0x7b,
  0x7e, 0x7e, 0x7e, 0x00, 0x7e, 0x7d, 0x7d, 0x7e, 0x7e, 0x7e, 0x00, 0x7e,
  0x7e, 0x7d, 0x7e, 0x7e, 0x7e, 0x7e, 0x7e, 0x7e, 0x7e, 0x00, 0x74, 0x00,
  0x7e, 0x7e, 0x7e, 0x7d, 0x7e, 0x7e, 0x7e, 0x7e, 0x7e, 0x7e, 0x7e, 0x7e,
  0x7e, 0x7e, 0x39, 0x7e, 0x7e, 0x7d, 0x7e, 0x7a, 0x7e, 0x7e, 0x7e, 0x7e,
  0x7e, 0x7e, 0x7e, 0x7e, 0x7e, 0x00, 0x7e, 0x7e, 0x7e, 0x7e, 0x7e, 0x7e,
  0x7e, 0x7d, 0x7e, 0x7e, 0x7e, 0x7e, 0x7e, 0x00, 0x7e, 0x7d, 0x7d, 0x7e,
  0x7e, 0x7e, 0x00, 0x7e, 0x7e, 0x7d, 0x7e, 0x7e, 0x7e, 0x7e, 0x7e, 0x7e,
  0x7e, 0x00, 0x74, 0x00, 0x7e, 0x7e, 0x7e, 0x7d, 0x7e, 0x7e, 0x7e, 0x7e,
  0x7e, 0x7e, 0x7e, 0x7e, 0x7e, 0x7e, 0x39, 0x7e, 0x7e, 0x7d, 0x7e, 0x7a,
  0x7e, 0x7e, 0x7e, 0x7e, 0x7e, 0x7e, 0x7e, 0x7e, 0x7e, 0x00, 0x7e, 0x7e,
  0x7e, 0x7e, 0x7e, 0x7e, 0x7e, 0x7d, 0x7e, 0x7e, 0x7e, 0x7e, 0x7e, 0x00,
  0x7e, 0x7d, 0x7d, 0x7e, 0x7e, 0x7e, 0x00, 0x7e, 0x7e, 0x7e, 0x7e, 0x7e,
  0x7e, 0x7e, 0x7e, 0x7e, 0x7e, 0x00, 0x73, 0x00, 0x7e, 0x7e, 0x7e, 0x7d,
  0x7e, 0x7e, 0x7e, 0x7e, 0x7e, 0x7e, 0x7e, 0x7e, 0x7e, 0x7e, 0x39, 0x7e,
  0x7e, 0x7d, 0x7e, 0x7a, 0x7e, 0x7e, 0x7e, 0x7e, 0x7e, 0x7e, 0x7e, 0x7e,
  0x7e, 0x00, 0x7e, 0x7e, 0x7e, 0x7e, 0x7e, 0x7e, 0x7e, 0x7d, 0x7e, 0x7e,
  0x7e, 0x7e, 0x7e, 0x00, 0x7e, 0x7d, 0x7c, 0x7e, 0x7e, 0x7e, 0x00, 0x7e,
  0x7e, 0x7d, 0x7e, 0x7e, 0x7e, 0x7e, 0x7e, 0x7e, 0x7e, 0x00, 0x73, 0x00,
  0x7e, 0x7e, 0x7e, 0x7d, 0x7e, 0x7e, 0x7e, 0x7e, 0x7e, 0x7e, 0x7e, 0x7e,
  0x7e, 0x7e, 0x39, 0x7e, 0x7e, 0x7c, 0x7e, 0x7a, 0x7e, 0x7e, 0x7e, 0x7e,
  0x7e, 0x7e, 0x7e, 0x7e, 0x7e, 0x00, 0x7e, 0x7e, 0x7e, 0x7e, 0x7e, 0x7e,
  0x7e, 0x7d, 0x7e, 0x7e, 0x00, 0x00, 0x00, 0x00, 0x00, 0x00, 0x00, 0x00,
  0x00, 0x00, 0x00, 0x00, 0x00, 0x00, 0x00, 0x00, 0x00, 0x00, 0x00, 0x00,
  0x00, 0x00, 0x00, 0x00, 0x00, 0x00, 0x00, 0x00, 0x00, 0x00, 0x00, 0x00,
  0x00, 0x00, 0x00, 0x00, 0x00, 0x00, 0x00, 0x00, 0x00, 0x00, 0x00, 0x00,
  0x00, 0x00, 0x00, 0x00, 0x00, 0x00, 0x00, 0x00, 0x00, 0x00, 0x00, 0x00,
  0x00, 0x00, 0x00, 0x00, 0x00, 0x00, 0x00, 0x00, 0x7b, 0x7b, 0x7b, 0x00,
  0x7b, 0x7b, 0x7b, 0x7b, 0x7b, 0x7b, 0x00, 0x7b, 0x7b, 0x7b, 0x7b, 0x7b,
  0x7b, 0x7b, 0x7b, 0x7b, 0x7b, 0x00, 0x74, 0x00, 0x7b, 0x7b, 0x7b, 0x7b,
  0x7b, 0x7b, 0x7b, 0x7b, 0x7b, 0x7b, 0x7b, 0x7b, 0x7b, 0x7b, 0x39, 0x7b,
  0x7b, 0x7b, 0x7b, 0x7a, 0x7b, 0x7b, 0x7b, 0x7b, 0x7b, 0x7b, 0x7b, 0x7b,
  0x7b, 0x00, 0x7b, 0x7b, 0x7b, 0x7b, 0x7b, 0x7b, 0x7b, 0x7b, 0x7b, 0x7b,
  0x7e, 0x7e, 0x7e, 0x00, 0x7e, 0x7d, 0x7d, 0x7e, 0x7e, 0x7e, 0x00, 0x7e,
  0x7e, 0x7d, 0x7e, 0x7e, 0x7e, 0x7e, 0x7e, 0x7e, 0x7e, 0x00, 0x73, 0x00,
  0x7e, 0x7e, 0x7e, 0x7d, 0x7e, 0x7e, 0x7e, 0x7e, 0x7e, 0x7e, 0x7e, 0x7e,
  0x7e, 0x7e, 0x39, 0x7e, 0x7e, 0x7d, 0x7e, 0x79, 0x7e, 0x7e, 0x7e, 0x7e,
  0x7e, 0x7e, 0x7e, 0x7e, 0x7e, 0x00, 0x7e, 0x7d, 0x7e, 0x7e, 0x7e, 0x7e,
  0x7e, 0x7d, 0x7e, 0x7e, 0x64, 0x64, 0x64, 0x00, 0x64, 0x64, 0x64, 0x64,
  0x64, 0x64, 0x00, 0x64, 0x64, 0x64, 0x64, 0x64, 0x64, 0x64, 0x64, 0x64,
  0x64, 0x00, 0x64, 0x00, 0x64, 0x64, 0x64, 0x64, 0x64, 0x64, 0x64, 0x64,
  0x64, 0x64, 0x64, 0x64, 0x64, 0x64, 0x39, 0x64, 0x64, 0x64, 0x64, 0x64,
  0x64, 0x64, 0x64, 0x64, 0x64, 0x64, 0x64, 0x64, 0x64, 0x00, 0x64, 0x64,
  0x64, 0x64, 0x64, 0x64, 0x64, 0x64, 0x64, 0x64, 0x7e, 0x7e, 0x7e, 0x00,
  0x7f, 0x7d, 0x7d, 0x7e, 0x7e, 0x7e, 0x00, 0x7e, 0x7f, 0x7d, 0x7e, 0x7e,
  0x7e, 0x7e, 0x7e, 0x7e, 0x7e, 0x00, 0x73, 0x00, 0x7e, 0x7e, 0x7e, 0x7d,
  0x7e, 0x7e, 0x7e, 0x7e, 0x7e, 0x7e, 0x7e, 0x7e, 0x7e, 0x7e, 0x39, 0x7e,
  0x7e, 0x7d, 0x7e, 0x79, 0x7e, 0x7e, 0x7e, 0x7f, 0x7e, 0x7e, 0x7e, 0x7e,
  0x7e, 0x00, 0x7e, 0x7e, 0x7e, 0x7e, 0x7e, 0x7e, 0x7e, 0x7d, 0x7e, 0x7e,
  0x7e, 0x7e, 0x7e, 0x00, 0x7e, 0x7d, 0x7d, 0x7e, 0x7e, 0x7e, 0x00, 0x7e,
  0x7e, 0x7d, 0x7e, 0x7e, 0x7e, 0x7e, 0x7e, 0x7e, 0x7e, 0x00, 0x73, 0x00,
  0x7e, 0x7e, 0x7e, 0x7d, 0x7e, 0x7e, 0x7e, 0x7e, 0x7e, 0x7e, 0x7e, 0x7e,
  0x7e, 0x7e, 0x39, 0x7e, 0x7e, 0x7d, 0x7e, 0x7a, 0x7e, 0x7e, 0x7e, 0x7e,
  0x7e, 0x7e, 0x7e, 0x7e, 0x7e, 0x00, 0x7e, 0x7e, 0x7e, 0x7e, 0x7e, 0x7e,
  0x7e, 0x7d, 0x7e, 0x7e, 0x7d, 0x7e, 0x7e, 0x00, 0x7f, 0x7d, 0x7d, 0x7e,
  0x7e, 0x7e, 0x00, 0x7e, 0x7e, 0x7e, 0x7f, 0x7e, 0x7e, 0x7f, 0x7e, 0x7e,
  0x7e, 0x00, 0x73, 0x00, 0x7f, 0x7f, 0x7e, 0x7e, 0x7e, 0x7f, 0x7f, 0x7e,
  0x7e, 0x7f, 0x7e, 0x7e, 0x7e, 0x7e, 0x39, 0x7e, 0x7f, 0x7d, 0x7e, 0x7a,
  0x7e, 0x7e, 0x7e, 0x7e, 0x7e, 0x7e, 0x7e, 0x7e, 0x7e, 0x00, 0x7e, 0x7e,
  0x7f, 0x7e, 0x7e, 0x7e, 0x7e, 0x7d, 0x7e, 0x7e, 0x92, 0xa9, 0xff, 0xff,
  0x04, 0x00, 0x00, 0x00, 0x00, 0x10, 0x00, 0x00, 0x00, 0x7e, 0x7d, 0x7e,
  0x7e, 0x7e, 0x7e, 0x7e, 0x7e, 0x7e, 0x7e, 0x7d, 0x7e, 0x7e, 0x7e, 0x7e,
  0x7e, 0x7e, 0x7e, 0x7e, 0x7e, 0x7e, 0x00, 0x00, 0x7e, 0x7e, 0x7e, 0x7e,
  0x7e, 0x7e, 0x34, 0x6b, 0x40, 0x7d, 0x63, 0x00, 0x7e, 0x00, 0x7e, 0x7e,
  0x7e, 0x7e, 0x7e, 0x6d, 0x7e, 0x7e, 0x7e, 0x7e, 0x00, 0x7e, 0x7e, 0x7d,
  0x7e, 0x7e, 0x7e, 0x7a, 0x7e, 0x7d, 0x7e, 0x00, 0x78, 0x7e, 0x7e, 0x00,
  0x00, 0x7e, 0x7d, 0x7e, 0x7e, 0x7e, 0x7e, 0x7e, 0x7e, 0x7e, 0x7e, 0x7d,
  0x7e, 0x7e, 0x7e, 0x7e, 0x7e, 0x7e, 0x7e, 0x7e, 0x7e, 0x7e, 0x00, 0x00,
  0x7e, 0x7e, 0x7e, 0x7e, 0x7e, 0x7e, 0x34, 0x6c, 0x40, 0x7d, 0x63, 0x00,
  0x7e, 0x00, 0x7e, 0x7e, 0x7e, 0x7e, 0x7e, 0x6d, 0x7e, 0x7e, 0x7e, 0x7e,
  0x00, 0x7e, 0x7e, 0x7d, 0x7e, 0x7e, 0x7e, 0x7a, 0x7e, 0x7e, 0x7e, 0x00,
  0x78, 0x7e, 0x7e, 0x00, 0x00, 0x7e, 0x7d, 0x7e, 0x7e, 0x7e, 0x7e, 0x7e,
  0x7e, 0x7e, 0x7e, 0x7d, 0x7e, 0x7e, 0x7e, 0x7e, 0x7e, 0x7e, 0x7e, 0x7e,
  0x7e, 0x7e, 0x00, 0x00, 0x7e, 0x7e, 0x7e, 0x7e, 0x7e, 0x7e, 0x34, 0x6c,
  0x40, 0x7d, 0x63, 0x00, 0x7e, 0x00, 0x7e, 0x7e, 0x7e, 0x7d, 0x7e, 0x6d,
  0x7e, 0x7e, 0x7e, 0x7e, 0x00, 0x7e, 0x7e, 0x7d, 0x7e, 0x7e, 0x7e, 0x7a,
  0x7e, 0x7e, 0x7e, 0x00, 0x78, 0x7e, 0x7e, 0x00, 0x00, 0x00, 0x00, 0x00,
  0x00, 0x00, 0x00, 0x00, 0x00, 0x00, 0x00, 0x00, 0x00, 0x00, 0x00, 0x00,
  0x00, 0x00, 0x00, 0x00, 0x00, 0x00, 0x00, 0x00, 0x00, 0x00, 0x00, 0x00,
  0x00, 0x00, 0x00, 0x00, 0x00, 0x00, 0x00, 0x00, 0x00, 0x00, 0x00, 0x00,
  0x00, 0x00, 0x00, 0x00, 0x00, 0x00, 0x00, 0x00, 0x00, 0x00, 0x00, 0x00,
  0x00, 0x00, 0x00, 0x00, 0x00, 0x00, 0x00, 0x00, 0x00, 0x00, 0x00, 0x00,
  0x00, 0x7f, 0x7d, 0x7f, 0x7e, 0x7e, 0x7e, 0x7e, 0x7e, 0x7e, 0x7e, 0x7d,
  0x7f, 0x7e, 0x7f, 0x7f, 0x7f, 0x7f, 0x7f, 0x7e, 0x7f, 0x7f, 0x00, 0x00,
  0x7e, 0x7e, 0x7e, 0x7e, 0x7e, 0x7e, 0x33, 0x6c, 0x40, 0x7d, 0x62, 0x00,
  0x7f, 0x00, 0x7e, 0x7e, 0x7e, 0x7e, 0x7e, 0x6d, 0x7e, 0x7f, 0x7f, 0x7e,
  0x00, 0x7e, 0x7e, 0x7d, 0x7e, 0x7e, 0x7f, 0x7a, 0x7f, 0x7e, 0x7f, 0x00,
  0x78, 0x7e, 0x7e, 0x00, 0x00, 0x7d, 0x7d, 0x7d, 0x7d, 0x7d, 0x7d, 0x7d,
  0x7d, 0x7d, 0x7d, 0x7d, 0x7d, 0x7d, 0x7d, 0x7d, 0x7d, 0x7d, 0x7d, 0x7d,
  0x7d, 0x7d, 0x00, 0x00, 0x7d, 0x7d, 0x7d, 0x7d, 0x7d, 0x7d, 0x34, 0x6c,
  0x40, 0x7d, 0x62, 0x00, 0x7d, 0x00, 0x7d, 0x7d, 0x7d, 0x7d, 0x7d, 0x6d,
  0x7d, 0x7d, 0x7d, 0x7d, 0x00, 0x7d, 0x7d, 0x7d, 0x7d, 0x7d, 0x7d, 0x7a,
  0x7d, 0x7d, 0x7d, 0x00, 0x78, 0x7d, 0x7d, 0x00, 0x00, 0x7d, 0x7d, 0x7d,
  0x7d, 0x7d, 0x7d, 0x7d, 0x7d, 0x7d, 0x7d, 0x7d, 0x7d, 0x7d, 0x7d, 0x7d,
  0x7d, 0x7d, 0x7d, 0x7d, 0x7d, 0x7d, 0x00, 0x00, 0x7d, 0x7d, 0x7d, 0x7d,
  0x7d, 0x7d, 0x34, 0x6b, 0x40, 0x7d, 0x62, 0x00, 0x7d, 0x00, 0x7d, 0x7d,
  0x7d, 0x7d, 0x7d, 0x6d, 0x7d, 0x7d, 0x7d, 0x7d, 0x00, 0x7d, 0x7d, 0x7d,
  0x7d, 0x7d, 0x7d, 0x7a, 0x7d, 0x7d, 0x7d, 0x00, 0x78, 0x7d, 0x7d, 0x00,
  0x00, 0x7e, 0x7d, 0x7e, 0x7e, 0x7e, 0x7e, 0x7e, 0x7e, 0x7e, 0x7e, 0x7d,
  0x7e, 0x7e, 0x7e, 0x7e, 0x7e, 0x7e, 0x7e, 0x7e, 0x7e, 0x7e, 0x00, 0x00,
  0x7e, 0x7e, 0x7e, 0x7e, 0x7e, 0x7e, 0x34, 0x6c, 0x40, 0x7d, 0x63, 0x00,
  0x7e, 0x00, 0x7e, 0x7e, 0x7e, 0x7e, 0x7e, 0x6d, 0x7e, 0x7e, 0x7e, 0x7e,
  0x00, 0x7e, 0x7e, 0x7d, 0x7e, 0x7e, 0x7e, 0x7a, 0x7e, 0x7e, 0x7e, 0x00,
  0x78, 0x7e, 0x7e, 0x00, 0x00, 0x7e, 0x7d, 0x7e, 0x7e, 0x7e, 0x7e, 0x7e,
  0x7e, 0x7e, 0x7e, 0x7d, 0x7e, 0x7e, 0x7e, 0x7e, 0x7e, 0x7e, 0x7e, 0x7e,
  0x7e, 0x7e, 0x00, 0x00, 0x7e, 0x7e, 0x7e, 0x7e, 0x7e, 0x7e, 0x34, 0x6b,
  0x40, 0x7d, 0x63, 0x00, 0x7e, 0x00, 0x7e, 0x7e, 0x7e, 0x7e, 0x7e, 0x6d,
  0x7e, 0x7e, 0x7e, 0x7e, 0x00, 0x7e, 0x7e, 0x7d, 0x7e, 0x7e, 0x7e, 0x7a,
  0x7e, 0x7e, 0x7e, 0x00, 0x78, 0x7e, 0x7e, 0x00, 0x00, 0x7e, 0x7d, 0x7e,
  0x7e, 0x7e, 0x7e, 0x7e, 0x7e, 0x7e, 0x7e, 0x7d, 0x7e, 0x7e, 0x7e, 0x7e,
  0x7e, 0x7e, 0x7e, 0x7e, 0x7e, 0x7e, 0x00, 0x00, 0x7e, 0x7e, 0x7e, 0x7e,
  0x7e, 0x7e, 0x34, 0x6c, 0x40, 0x7d, 0x63, 0x00, 0x7e, 0x00, 0x7e, 0x7e,
  0x7e, 0x7d, 0x7e, 0x6d, 0x7e, 0x7e, 0x7e, 0x7e, 0x00, 0x7e, 0x7e, 0x7d,
  0x7e, 0x7e, 0x7e, 0x7a, 0x7e, 0x7e, 0x7e, 0x00, 0x78, 0x7e, 0x7e, 0x00,
  0x00, 0x00, 0x00, 0x00, 0x00, 0x00, 0x00, 0x00, 0x00, 0x00, 0x00, 0x00,
  0x00, 0x00, 0x00, 0x00, 0x00, 0x00, 0x00, 0x00, 0x00, 0x00, 0x00, 0x00,
  0x00, 0x00, 0x00, 0x00, 0x00, 0x00, 0x00, 0x00, 0x00, 0x00, 0x00, 0x00,
  0x00, 0x00, 0x00, 0x00, 0x00, 0x00, 0x00, 0x00, 0x00, 0x00, 0x00, 0x00,
  0x00, 0x00, 0x00, 0x00, 0x00, 0x00, 0x00, 0x00, 0x00, 0x00, 0x00, 0x00,
  0x00, 0x00, 0x00, 0x00, 0x00, 0x7e, 0x7d, 0x7e, 0x7e, 0x7e, 0x7e, 0x7e,
  0x7e, 0x7e, 0x7e, 0x7d, 0x7e, 0x7e, 0x7e, 0x7e, 0x7e, 0x7e, 0x7e, 0x7e,
  0x7e, 0x7e, 0x00, 0x00, 0x7e, 0x7e, 0x7e, 0x7e, 0x7e, 0x7e, 0x34, 0x6c,
  0x40, 0x7d, 0x63, 0x00, 0x7e, 0x00, 0x7e, 0x7e, 0x7e, 0x7d, 0x7e, 0x6d,
  0x7e, 0x7e, 0x7e, 0x7e, 0x00, 0x7e, 0x7e, 0x7d, 0x7e, 0x7e, 0x7e, 0x7a,
  0x7e, 0x7e, 0x7e, 0x00, 0x78, 0x7e, 0x7e, 0x00, 0x00, 0x7e, 0x7d, 0x7e,
  0x7e, 0x7e, 0x7f, 0x7e, 0x7e, 0x7e, 0x7e, 0x7d, 0x7e, 0x7e, 0x7f, 0x7e,
  0x7e, 0x7e, 0x7e, 0x7e, 0x7e, 0x7e, 0x00, 0x00, 0x7e, 0x7e, 0x7e, 0x7f,
  0x7e, 0x7e, 0x34, 0x6c, 0x41, 0x7e, 0x63, 0x00, 0x7e, 0x00, 0x7e, 0x7e,
  0x7e, 0x7e, 0x7e, 0x6d, 0x7e, 0x7f, 0x7f, 0x7e, 0x00, 0x7e, 0x7e, 0x7d,
  0x7e, 0x7e, 0x7e, 0x7a, 0x7f, 0x7e, 0x7e, 0x00, 0x78, 0x7e, 0x7e, 0x00,
  0x00, 0x7e, 0x7d, 0x7d, 0x7e, 0x7e, 0x7e, 0x7e, 0x7e, 0x7e, 0x7d, 0x7d,
  0x7e, 0x7e, 0x7d, 0x7d, 0x7d, 0x7d, 0x7e, 0x7d, 0x7e, 0x7d, 0x00, 0x00,
  0x7e, 0x7d, 0x7e, 0x7e, 0x7e, 0x7e, 0x33, 0x6c, 0x41, 0x7d, 0x63, 0x00,
  0x7e, 0x00, 0x7e, 0x7e, 0x7e, 0x7d, 0x7e, 0x6d, 0x7d, 0x7e, 0x7e, 0x7e,
  0x00, 0x7d, 0x7e, 0x7d, 0x7e, 0x7e, 0x7e, 0x7a, 0x7e, 0x7e, 0x7e, 0x00,
  0x78, 0x7e, 0x7e, 0x00, 0x00, 0x7f, 0x7d, 0x7f, 0x7e, 0x7e, 0x7f, 0x7e,
  0x7e, 0x7e, 0x7e, 0x7d, 0x7f, 0x7e, 0x7f, 0x7e, 0x7e, 0x7f, 0x7e, 0x7e,
  0x7e, 0x7e, 0x00, 0x00, 0x7e, 0x7e, 0x7e, 0x7e, 0x7e, 0x7f, 0x34, 0x6c,
  0x40, 0x7d, 0x63, 0x00, 0x7f, 0x00, 0x7e, 0x7e, 0x7e, 0x7d, 0x7e, 0x6d,
  0x7e, 0x7e, 0x7f, 0x7e, 0x00, 0x7e, 0x7e, 0x7d, 0x7e, 0x7e, 0x7e, 0x7a,
  0x7e, 0x7e, 0x7e, 0x00, 0x78, 0x7e, 0x7e, 0x00, 0x00, 0x7e, 0x7d, 0x7e,
  0x7e, 0x7e, 0x7e, 0x7e, 0x7e, 0x7e, 0x7e, 0x7d, 0x7e, 0x7e, 0x7e, 0x7e,
  0x7e, 0x7e, 0x7e, 0x7e, 0x7e, 0x7e, 0x00, 0x00, 0x7e, 0x7e, 0x7e, 0x7e,
  0x7e, 0x7e, 0x34, 0x6c, 0x40, 0x7d, 0x63, 0x00, 0x7f, 0x00, 0x7e, 0x7e,
  0x7e, 0x7d, 0x7e, 0x6d, 0x7e, 0x7e, 0x7e, 0x7e, 0x00, 0x7e, 0x7e, 0x7d,
  0x7e, 0x7e, 0x7e, 0x7a, 0x7e, 0x7e, 0x7e, 0x00, 0x78, 0x7e, 0x7e, 0x00,
  0x00, 0x7e, 0x7d, 0x7e, 0x7e, 0x7e, 0x7e, 0x7e, 0x7e, 0x7e, 0x7e, 0x7d,
  0x7e, 0x7e, 0x7e, 0x7e, 0x7e, 0x7e, 0x7e, 0x7e, 0x7e, 0x7e, 0x00, 0x00,
  0x7e, 0x7e, 0x7e, 0x7e, 0x7e, 0x7e, 0x34, 0x6c, 0x40, 0x7d, 0x63, 0x00,
  0x7e, 0x00, 0x7e, 0x7e, 0x7e, 0x7e, 0x7e, 0x6d, 0x7e, 0x7e, 0x7e, 0x7e,
  0x00, 0x7e, 0x7e, 0x7d, 0x7e, 0x7e, 0x7e, 0x7a, 0x7e, 0x7e, 0x7e, 0x00,
  0x78, 0x7e, 0x7e, 0x00, 0x00, 0x7e, 0x7d, 0x7e, 0x7e, 0x7e, 0x7f, 0x7e,
  0x7e, 0x7e, 0x7e, 0x7d, 0x7f, 0x7e, 0x7e, 0x7e, 0x7f, 0x7f, 0x7e, 0x7e,
  0x7e, 0x7e, 0x00, 0x00, 0x7e, 0x7e, 0x7e, 0x7f, 0x7e, 0x7e, 0x34, 0x6b,
  0x40, 0x7e, 0x63, 0x00, 0x7e, 0x00, 0x7e, 0x7e, 0x7e, 0x7e, 0x7e, 0x6d,
  0x7e, 0x7f, 0x7f, 0x7e, 0x00, 0x7f, 0x7e, 0x7d, 0x7e, 0x7e, 0x7e, 0x7a,
  0x7f, 0x7e, 0x7e, 0x00, 0x78, 0x7e, 0x7e, 0x00, 0x00, 0x7e, 0x7d, 0x7e,
  0x7e, 0x7e, 0x7e, 0x7e, 0x7e, 0x7e, 0x7e, 0x7d, 0x7e, 0x7e, 0x7e, 0x7e,
  0x7e, 0x7e, 0x7e, 0x7e, 0x7e, 0x7e, 0x00, 0x00, 0x7e, 0x7e, 0x7e, 0x7e,
  0x7e, 0x7e, 0x34, 0x6c, 0x40, 0x7d, 0x62, 0x00, 0x7e, 0x00, 0x7e, 0x7e,
  0x7e, 0x7e, 0x7e, 0x6d, 0x7e, 0x7e, 0x7f, 0x7e, 0x00, 0x7e, 0x7e, 0x7d,
  0x7e, 0x7e, 0x7e, 0x7a, 0x7e, 0x7e, 0x7e, 0x00, 0x78, 0x7e, 0x7e, 0x00,
  0x00, 0x7e, 0x7d, 0x7e, 0x7e, 0x7e, 0x7e, 0x7e, 0x7e, 0x7e, 0x7e, 0x7d,
  0x7f, 0x7e, 0x7e, 0x7e, 0x7e, 0x7e, 0x7e, 0x7e, 0x7e, 0x7e, 0x00, 0x00,
  0x7e, 0x7e, 0x7e, 0x7e, 0x7e, 0x7e, 0x34, 0x6c, 0x41, 0x7e, 0x63, 0x00,
  0x7e, 0x00, 0x7e, 0x7e, 0x7e, 0x7d, 0x7e, 0x6d, 0x7e, 0x7e, 0x7e, 0x7e,
  0x00, 0x7e, 0x7e, 0x7d, 0x7e, 0x7e, 0x7e, 0x7a, 0x7e, 0x7e, 0x7e, 0x00,
  0x78, 0x7e, 0x7e, 0x00, 0x00, 0x7e, 0x7d, 0x7e, 0x7e, 0x7e, 0x7e, 0x7e,
  0x7e, 0x7e, 0x7e, 0x7d, 0x7e, 0x7e, 0x7e, 0x7e, 0x7e, 0x7e, 0x7e, 0x7e,
  0x7e, 0x7e, 0x00, 0x00, 0x7e, 0x7e, 0x7e, 0x7e, 0x7e, 0x7e, 0x34, 0x6c,
  0x40, 0x7d, 0x63, 0x00, 0x7e, 0x00, 0x7e, 0x7e, 0x7e, 0x7d, 0x7e, 0x6d,
  0x7e, 0x7e, 0x7f, 0x7e, 0x00, 0x7e, 0x7e, 0x7d, 0x7e, 0x7e, 0x7e, 0x7a,
  0x7e, 0x7e, 0x7e, 0x00, 0x78, 0x7e, 0x7e, 0x00, 0x00, 0x00, 0x00, 0x00,
  0x00, 0x00, 0x00, 0x00, 0x00, 0x00, 0x00, 0x00, 0x00, 0x00, 0x00, 0x00,
  0x00, 0x00, 0x00, 0x00, 0x00, 0x00, 0x00, 0x00, 0x00, 0x00, 0x00, 0x00,
  0x00, 0x00, 0x00, 0x00, 0x00, 0x00, 0x00, 0x00, 0x00, 0x00, 0x00, 0x00,
  0x00, 0x00, 0x00, 0x00, 0x00, 0x00, 0x00, 0x00, 0x00, 0x00, 0x00, 0x00,
  0x00, 0x00, 0x00, 0x00, 0x00, 0x00, 0x00, 0x00, 0x00, 0x00, 0x00, 0x00,
  0x00, 0x73, 0x73, 0x73, 0x73, 0x73, 0x73, 0x73, 0x73, 0x74, 0x73, 0x74,
  0x73, 0x73, 0x73, 0x73, 0x73, 0x74, 0x73, 0x73, 0x74, 0x73, 0x00, 0x00,
  0x74, 0x73, 0x73, 0x74, 0x74, 0x73, 0x34, 0x6c, 0x40, 0x73, 0x63, 0x00,
  0x73, 0x00, 0x74, 0x74, 0x73, 0x73, 0x73, 0x6d, 0x73, 0x73, 0x73, 0x74,
  0x00, 0x74, 0x74, 0x73, 0x74, 0x73, 0x73, 0x74, 0x73, 0x74, 0x73, 0x00,
  0x74, 0x74, 0x74, 0x00, 0x00, 0x00, 0x00, 0x00, 0x00, 0x00, 0x00, 0x00,
  0x00, 0x00, 0x00, 0x00, 0x00, 0x00, 0x00, 0x00, 0x00, 0x00, 0x00, 0x00,
  0x00, 0x00, 0x00, 0x00, 0x00, 0x00, 0x00, 0x00, 0x00, 0x00, 0x00, 0x00,
  0x00, 0x00, 0x00, 0x00, 0x00, 0x00, 0x00, 0x00, 0x00, 0x00, 0x00, 0x00,
  0x00, 0x00, 0x00, 0x00, 0x00, 0x00, 0x00, 0x00, 0x00, 0x00, 0x00, 0x00,
  0x00, 0x00, 0x00, 0x00, 0x00, 0x00, 0x00, 0x00, 0x00, 0x7e, 0x7d, 0x7e,
  0x7e, 0x7e, 0x7f, 0x7e, 0x7e, 0x7e, 0x7e, 0x7d, 0x7f, 0x7e, 0x7e, 0x7e,
  0x7e, 0x7e, 0x7e, 0x7e, 0x7e, 0x7f, 0x00, 0x00, 0x7e, 0x7e, 0x7e, 0x7f,
  0x7e, 0x7f, 0x34, 0x6c, 0x40, 0x7e, 0x63, 0x00, 0x7e, 0x00, 0x7e, 0x7e,
  0x7e, 0x7e, 0x7e, 0x6d, 0x7e, 0x7e, 0x7e, 0x7e, 0x00, 0x7e, 0x7e, 0x7d,
  0x7e, 0x7e, 0x7e, 0x7a, 0x7f, 0x7e, 0x7e, 0x00, 0x78, 0x7e, 0x7e, 0x00,
  0x00, 0x7e, 0x7d, 0x7e, 0x7e, 0x7e, 0x7e, 0x7e, 0x7e, 0x7e, 0x7f, 0x7d,
  0x7e, 0x7e, 0x7f, 0x7e, 0x7e, 0x7f, 0x7e, 0x7f, 0x7e, 0x7f, 0x00, 0x00,
  0x7e, 0x7f, 0x7e, 0x7e, 0x7e, 0x7e, 0x33, 0x6c, 0x40, 0x7e, 0x63, 0x00,
  0x7f, 0x00, 0x7e, 0x7e, 0x7e, 0x7d, 0x7e, 0x6d, 0x7e, 0x7e, 0x7f, 0x7e,
  0x00, 0x7e, 0x7e, 0x7d, 0x7e, 0x7e, 0x7e, 0x7a, 0x7e, 0x7e, 0x7e, 0x00,
  0x78, 0x7e, 0x7e, 0x00, 0x00, 0x7e, 0x7d, 0x7e, 0x7e, 0x7e, 0x7e, 0x7e,
  0x7e, 0x7e, 0x7e, 0x7d, 0x7e, 0x7e, 0x7e, 0x7e, 0x7e, 0x7e, 0x7e, 0x7e,
  0x7e, 0x7e, 0x00, 0x00, 0x7e, 0x7e, 0x7e, 0x7e, 0x7e, 0x7e, 0x34, 0x6b,
  0x40, 0x7e, 0x63, 0x00, 0x7e, 0x00, 0x7e, 0x7e, 0x7e, 0x7e, 0x7e, 0x6d,
  0x7e, 0x7e, 0x7e, 0x7e, 0x00, 0x7e, 0x7e, 0x7d, 0x7e, 0x7e, 0x7e, 0x7a,
  0x7e, 0x7e, 0x7e, 0x00, 0x78, 0x7e, 0x7e, 0x00, 0x00, 0x7d, 0x7d, 0x7d,
  0x7d, 0x7d, 0x7e, 0x7d, 0x7d, 0x7e, 0x7e, 0x7d, 0x7d, 0x7d, 0x7d, 0x7d,
  0x7d, 0x7e, 0x7d, 0x7d, 0x7d, 0x7e, 0x00, 0x00, 0x7d, 0x7d, 0x7e, 0x7e,
  0x7e, 0x7d, 0x34, 0x6c, 0x40, 0x7d, 0x63, 0x00, 0x7d, 0x00, 0x7e, 0x7e,
  0x7e, 0x7e, 0x7e, 0x6d, 0x7e, 0x7d, 0x7d, 0x7e, 0x00, 0x7e, 0x7e, 0x7d,
  0x7e, 0x7d, 0x7e, 0x7a, 0x7d, 0x7d, 0x7d, 0x00, 0x78, 0x7e, 0x7d, 0x00,
  0x00, 0x7e, 0x7d, 0x7e, 0x7e, 0x7e, 0x7e, 0x7e, 0x7e, 0x7e, 0x7e, 0x7d,
  0x7e, 0x7e, 0x7e, 0x7e, 0x7e, 0x7e, 0x7e, 0x7e, 0x7e, 0x7e, 0x00, 0x00,
  0x7e, 0x7e, 0x7e, 0x7e, 0x7e, 0x7e, 0x34, 0x6c, 0x40, 0x7d, 0x63, 0x00,
  0x7e, 0x00, 0x7e, 0x7e, 0x7e, 0x7d, 0x7e, 0x6d, 0x7e, 0x7e, 0x7e, 0x7e,
  0x00, 0x7e, 0x7e, 0x7d, 0x7e, 0x7e, 0x7e, 0x7a, 0x7e, 0x7e, 0x7e, 0x00,
  0x78, 0x7e, 0x7e, 0x00, 0x00, 0x7e, 0x7d, 0x7e, 0x7e, 0x7e, 0x7e, 0x7e,
  0x7e, 0x7e, 0x7e, 0x7d, 0x7f, 0x7e, 0x7e, 0x7e, 0x7e, 0x7e, 0x7e, 0x7e,
  0x7e, 0x7e, 0x00, 0x00, 0x7e, 0x7e, 0x7e, 0x7e, 0x7e, 0x7e, 0x34, 0x6c,
  0x40, 0x7e, 0x63, 0x00, 0x7e, 0x00, 0x7e, 0x7e, 0x7e, 0x7e, 0x7e, 0x6d,
  0x7e, 0x7e, 0x7e, 0x7e, 0x00, 0x7e, 0x7e, 0x7d, 0x7e, 0x7e, 0x7e, 0x7a,
  0x7e, 0x7e, 0x7e, 0x00, 0x78, 0x7e, 0x7e, 0x00, 0x00, 0x7e, 0x7d, 0x7e,
  0x7e, 0x7e, 0x7f, 0x7e, 0x7e, 0x7e, 0x7e, 0x7d, 0x7f, 0x7e, 0x7e, 0x7e,
  0x7e, 0x7f, 0x7e, 0x7e, 0x7e, 0x7e, 0x00, 0x00, 0x7e, 0x7e, 0x7e, 0x7f,
  0x7e, 0x7e, 0x34, 0x6c, 0x40, 0x7e, 0x63, 0x00, 0x7e, 0x00, 0x7f, 0x7e,
  0x7e, 0x7e, 0x7e, 0x6d, 0x7e, 0x7e, 0x7e, 0x7e, 0x00, 0x7e, 0x7e, 0x7d,
  0x7e, 0x7e, 0x7e, 0x7a, 0x7e, 0x7e, 0x7e, 0x00, 0x78, 0x7e, 0x7e, 0x00,
  0x00, 0x7e, 0x7d, 0x7e, 0x7e, 0x7e, 0x7e, 0x7e, 0x7e, 0x7e, 0x7e, 0x7d,
  0x7e, 0x7e, 0x7e, 0x7e, 0x7e, 0x7e, 0x7e, 0x7e, 0x7e, 0x7e, 0x00, 0x00,
  0x7e, 0x7e, 0x7e, 0x7e, 0x7e, 0x7e, 0x34, 0x6c, 0x40, 0x7d, 0x63, 0x00,
  0x7e, 0x00, 0x7e, 0x7e, 0x7e, 0x7e, 0x7e, 0x6d, 0x7e, 0x7e, 0x7e, 0x7e,
  0x00, 0x7e, 0x7e, 0x7d, 0x7e, 0x7e, 0x7e, 0x7a, 0x7e, 0x7e, 0x7e, 0x00,
  0x78, 0x7e, 0x7e, 0x00, 0x00, 0x7e, 0x7d, 0x7e, 0x7e, 0x7e, 0x7e, 0x7e,
  0x7e, 0x7e, 0x7e, 0x7d, 0x7e, 0x7e, 0x7e, 0x7e, 0x7e, 0x7e, 0x7e, 0x7e,
  0x7e, 0x7e, 0x00, 0x00, 0x7e, 0x7e, 0x7e, 0x7e, 0x7e, 0x7e, 0x34, 0x6c,
  0x40, 0x7d, 0x62, 0x00, 0x7e, 0x00, 0x7e, 0x7e, 0x7e, 0x7e, 0x7e, 0x6d,
  0x7e, 0x7e, 0x7e, 0x7e, 0x00, 0x7e, 0x7e, 0x7d, 0x7e, 0x7e, 0x7e, 0x7a,
  0x7e, 0x7e, 0x7e, 0x00, 0x78, 0x7e, 0x7e, 0x00, 0x00, 0x7e, 0x7d, 0x7e,
  0x7e, 0x7e, 0x7f, 0x7e, 0x7e, 0x7e, 0x7e, 0x7d, 0x7f, 0x7e, 0x7e, 0x7e,
  0x7e, 0x7e, 0x7e, 0x7e, 0x7e, 0x7e, 0x00, 0x00, 0x7e, 0x7e, 0x7e, 0x7f,
  0x7e, 0x7e, 0x34, 0x6c, 0x41, 0x7e, 0x62, 0x00, 0x7f, 0x00, 0x7f, 0x7e,
  0x7e, 0x7e, 0x7e, 0x6d, 0x7e, 0x7e, 0x7e, 0x7e, 0x00, 0x7e, 0x7e, 0x7d,
  0x7e, 0x7e, 0x7f, 0x7a, 0x7f, 0x7e, 0x7e, 0x00, 0x78, 0x7e, 0x7e, 0x00,
  0x00, 0x7e, 0x7d, 0x7e, 0x7e, 0x7e, 0x7f, 0x7e, 0x7e, 0x7e, 0x7e, 0x7d,
  0x7f, 0x7e, 0x7e, 0x7f, 0x7f, 0x7f, 0x7e, 0x7e, 0x7e, 0x7f, 0x00, 0x00,
  0x7e, 0x7e, 0x7f, 0x7f, 0x7e, 0x7e, 0x34, 0x6c, 0x40, 0x7d, 0x63, 0x00,
  0x7e, 0x00, 0x7e, 0x7e, 0x7e, 0x7e, 0x7e, 0x6d, 0x7e, 0x7e, 0x7f, 0x7e,
  0x00, 0x7e, 0x7e, 0x7d, 0x7e, 0x7e, 0x7e, 0x7a, 0x7f, 0x7e, 0x7e, 0x00,
  0x78, 0x7e, 0x7e, 0x00, 0x00, 0x7e, 0x7d, 0x7e, 0x7e, 0x7e, 0x7e, 0x7e,
  0x7e, 0x7e, 0x7e, 0x7d, 0x7e, 0x7e, 0x7e, 0x7e, 0x7e, 0x7e, 0x7e, 0x7e,
  0x7e, 0x7e, 0x00, 0x00, 0x7e, 0x7e, 0x7e, 0x7e, 0x7e, 0x7e, 0x34, 0x6c,
  0x40, 0x7d, 0x63, 0x00, 0x7e, 0x00, 0x7e, 0x7e, 0x7e, 0x7d, 0x7e, 0x6d,
  0x7e, 0x7e, 0x7e, 0x7e, 0x00, 0x7e, 0x7e, 0x7d, 0x7e, 0x7e, 0x7e, 0x7a,
  0x7e, 0x7e, 0x7e, 0x00, 0x78, 0x7e, 0x7e, 0x00, 0x00, 0x7e, 0x7d, 0x7e,
  0x7e, 0x7e, 0x7e, 0x7e, 0x7e, 0x7e, 0x7e, 0x7d, 0x7e, 0x7e, 0x7e, 0x7e,
  0x7e, 0x7e, 0x7e, 0x7e, 0x7e, 0x7e, 0x00, 0x00, 0x7e, 0x7e, 0x7e, 0x7e,
  0x7e, 0x7e, 0x34, 0x6b, 0x41, 0x7d, 0x63, 0x00, 0x7e, 0x00, 0x7e, 0x7e,
  0x7e, 0x7e, 0x7e, 0x6d, 0x7e, 0x7e, 0x7e, 0x7e, 0x00, 0x7e, 0x7e, 0x7d,
  0x7e, 0x7e, 0x7e, 0x7a, 0x7e, 0x7e, 0x7e, 0x00, 0x78, 0x7e, 0x7e, 0x00,
  0x00, 0x7e, 0x7d, 0x7e, 0x7e, 0x7e, 0x7f, 0x7e, 0x7e, 0x7e, 0x7e, 0x7d,
  0x7f, 0x7e, 0x7e, 0x7e, 0x7e, 0x7f, 0x7e, 0x7e, 0x7e, 0x7f, 0x00, 0x00,
  0x7e, 0x7e, 0x7e, 0x7e, 0x7e, 0x7f, 0x34, 0x6c, 0x40, 0x7d, 0x63, 0x00,
  0x7e, 0x00, 0x7e, 0x7e, 0x7e, 0x7e, 0x7e, 0x6d, 0x7e, 0x7e, 0x7e, 0x7e,
  0x00, 0x7e, 0x7e, 0x7d, 0x7e, 0x7e, 0x7e, 0x7a, 0x7f, 0x7e, 0x7f, 0x00,
  0x78, 0x7e, 0x7e, 0x00, 0x00, 0x39, 0x39, 0x39, 0x39, 0x39, 0x39, 0x39,
  0x39, 0x39, 0x39, 0x39, 0x39, 0x39, 0x39, 0x39, 0x39, 0x39, 0x39, 0x39,
  0x39, 0x39, 0x00, 0x00, 0x39, 0x39, 0x39, 0x39, 0x39, 0x39, 0x34, 0x39,
  0x39, 0x39, 0x39, 0x00, 0x39, 0x00, 0x39, 0x39, 0x39, 0x39, 0x39, 0x39,
  0x39, 0x39, 0x39, 0x39, 0x00, 0x39, 0x39, 0x39, 0x39, 0x39, 0x39, 0x39,
  0x39, 0x39, 0x39, 0x00, 0x39, 0x39, 0x39, 0x00, 0x00, 0x7e, 0x7d, 0x7e,
  0x7e, 0x7e, 0x7e, 0x7e, 0x7e, 0x7e, 0x7e, 0x7d, 0x7e, 0x7e, 0x7e, 0x7e,
  0x7e, 0x7e, 0x7e, 0x7e, 0x7e, 0x7e, 0x00, 0x00, 0x7e, 0x7e, 0x7e, 0x7e,
  0x7e, 0x7e, 0x34, 0x6c, 0x40, 0x7d, 0x62, 0x00, 0x7e, 0x00, 0x7e, 0x7e,
  0x7e, 0x7e, 0x7e, 0x6d, 0x7e, 0x7e, 0x7e, 0x7e, 0x00, 0x7e, 0x7e, 0x7d,
  0x7e, 0x7e, 0x7e, 0x7a, 0x7e, 0x7e, 0x7e, 0x00, 0x78, 0x7e, 0x7e, 0x00,
  0x00, 0x7e, 0x7d, 0x7e, 0x7e, 0x7e, 0x7e, 0x7e, 0x7e, 0x7e, 0x7e, 0x7d,
  0x7e, 0x7e, 0x7f, 0x7e, 0x7e, 0x7f, 0x7e, 0x7e, 0x7e, 0x7e, 0x00, 0x00,
  0x7e, 0x7e, 0x7e, 0x7f, 0x7e, 0x7e, 0x33, 0x6b, 0x40, 0x7d, 0x62, 0x00,
  0x7f, 0x00, 0x7e, 0x7e, 0x7e, 0x7d, 0x7e, 0x6d, 0x7e, 0x7f, 0x7f, 0x7e,
  0x00, 0x7f, 0x7e, 0x7d, 0x7e, 0x7e, 0x7e, 0x7a, 0x7e, 0x7e, 0x7e, 0x00,
  0x78, 0x7e, 0x7e, 0x00, 0x00, 0x7d, 0x7d, 0x7d, 0x7d, 0x7d, 0x7d, 0x7d,
  0x7d, 0x7d, 0x7d, 0x7d, 0x7d, 0x7d, 0x7d, 0x7d, 0x7d, 0x7d, 0x7d, 0x7d,
  0x7d, 0x7d, 0x00, 0x00, 0x7d, 0x7d, 0x7d, 0x7d, 0x7d, 0x7d, 0x34, 0x6c,
  0x40, 0x7d, 0x63, 0x00, 0x7d, 0x00, 0x7d, 0x7d, 0x7d, 0x7d, 0x7d, 0x6d,
  0x7d, 0x7d, 0x7d, 0x7d, 0x00, 0x7d, 0x7d, 0x7d, 0x7d, 0x7d, 0x7d, 0x7a,
  0x7d, 0x7d, 0x7d, 0x00, 0x78, 0x7d, 0x7d, 0x00, 0x00, 0x7e, 0x7d, 0x7e,
  0x7e, 0x7e, 0x7e, 0x7e, 0x7e, 0x7e, 0x7e, 0x7d, 0x7e, 0x7e, 0x7e, 0x7e,
  0x7e, 0x7e, 0x7e, 0x7e, 0x7e, 0x7e, 0x00, 0x00, 0x7e, 0x7e, 0x7e, 0x7e,
  0x7e, 0x7e, 0x34, 0x6c, 0x40, 0x7d, 0x63, 0x00, 0x7e, 0x00, 0x7e, 0x7e,
  0x7e, 0x7d, 0x7e, 0x6d, 0x7e, 0x7e, 0x7e, 0x7e, 0x00, 0x7e, 0x7e, 0x7d,
  0x7e, 0x7e, 0x7e, 0x7a, 0x7e, 0x7e, 0x7e, 0x00, 0x78, 0x7e, 0x7e, 0x00,
  0x00, 0x7a, 0x79, 0x7a, 0x7a, 0x7a, 0x7a, 0x7a, 0x79, 0x7a, 0x7a, 0x7a,
  0x79, 0x7a, 0x7a, 0x7a, 0x79, 0x7a, 0x7a, 0x7a, 0x7a, 0x7a, 0x00, 0x00,
  0x7a, 0x7a, 0x7a, 0x7a, 0x79, 0x79, 0x33, 0x6c, 0x40, 0x7a, 0x62, 0x00,
  0x7a, 0x00, 0x7a, 0x7a, 0x7a, 0x7a, 0x7a, 0x6d, 0x79, 0x79, 0x79, 0x7a,
  0x00, 0x7a, 0x7a, 0x7a, 0x7a, 0x79, 0x79, 0x7a, 0x7a, 0x7a, 0x7a, 0x00,
  0x78, 0x79, 0x7a, 0x00, 0x00, 0x7e, 0x7d, 0x7e, 0x7e, 0x7e, 0x7e, 0x7e,
  0x7e, 0x7e, 0x7e, 0x7d, 0x7e, 0x7e, 0x7e, 0x7e, 0x7e, 0x7e, 0x7e, 0x7e,
  0x7e, 0x7e, 0x00, 0x00, 0x7e, 0x7e, 0x7e, 0x7e, 0x7e, 0x7e, 0x34, 0x6c,
  0x40, 0x7d, 0x63, 0x00, 0x7e, 0x00, 0x7e, 0x7e, 0x7e, 0x7e, 0x7e, 0x6d,
  0x7e, 0x7e, 0x7e, 0x7e, 0x00, 0x7e, 0x7e, 0x7d, 0x7e, 0x7e, 0x7e, 0x7a,
  0x7e, 0x7d, 0x7e, 0x00, 0x78, 0x7e, 0x7e, 0x00, 0x00, 0x7e, 0x7d, 0x7e,
  0x7e, 0x7e, 0x7e, 0x7e, 0x7e, 0x7e, 0x7e, 0x7d, 0x7e, 0x7e, 0x7e, 0x7e,
  0x7e, 0x7e, 0x7e, 0x7e, 0x7e, 0x7e, 0x00, 0x00, 0x7e, 0x7e, 0x7e, 0x7e,
  0x7e, 0x7e, 0x34, 0x6c, 0x40, 0x7d, 0x63, 0x00, 0x7e, 0x00, 0x7e, 0x7e,
  0x7e, 0x7e, 0x7e, 0x6d, 0x7e, 0x7e, 0x7e, 0x7e, 0x00, 0x7e, 0x7e, 0x7d,
  0x7e, 0x7e, 0x7e, 0x7a, 0x7e, 0x7e, 0x7e, 0x00, 0x78, 0x7e, 0x7e, 0x00,
  0x00, 0x7e, 0x7d, 0x7e, 0x7e, 0x7e, 0x7e, 0x7e, 0x7e, 0x7e, 0x7e, 0x7d,
  0x7e, 0x7e, 0x7e, 0x7e, 0x7e, 0x7e, 0x7e, 0x7e, 0x7e, 0x7e, 0x00, 0x00,
  0x7e, 0x7e, 0x7e, 0x7e, 0x7e, 0x7e, 0x33, 0x6c, 0x41, 0x7d, 0x62, 0x00,
  0x7e, 0x00, 0x7e, 0x7e, 0x7e, 0x7e, 0x7e, 0x6d, 0x7e, 0x7e, 0x7e, 0x7e,
  0x00, 0x7e, 0x7e, 0x7d, 0x7e, 0x7e, 0x7e, 0x7a, 0x7e, 0x7e, 0x7e, 0x00,
  0x78, 0x7e, 0x7e, 0x00, 0x00, 0x7e, 0x7d, 0x7e, 0x7e, 0x7e, 0x7f, 0x7e,
  0x7e, 0x7e, 0x7e, 0x7d, 0x7f, 0x7e, 0x7e, 0x7f, 0x7e, 0x7f, 0x7e, 0x7e,
  0x7e, 0x7e, 0x00, 0x00, 0x7e, 0x7e, 0x7e, 0x7e, 0x7e, 0x7e, 0x33, 0x6c,
  0x40, 0x7d, 0x62, 0x00, 0x7e, 0x00, 0x7e, 0x7e, 0x7e, 0x7e, 0x7e, 0x6d,
  0x7e, 0x7e, 0x7f, 0x7e, 0x00, 0x7e, 0x7e, 0x7d, 0x7e, 0x7e, 0x7e, 0x7a,
  0x7e, 0x7d, 0x7e, 0x00, 0x78, 0x7e, 0x7e, 0x00, 0x00, 0x7e, 0x7d, 0x7e,
  0x7e, 0x7e, 0x7e, 0x7e, 0x7e, 0x7e, 0x7e, 0x7d, 0x7f, 0x7e, 0x7e, 0x7e,
  0x7e, 0x7e, 0x7e, 0x7e, 0x7e, 0x7e, 0x00, 0x00, 0x7e, 0x7e, 0x7e, 0x7e,
  0x7e, 0x7e, 0x34, 0x6b, 0x40, 0x7e, 0x63, 0x00, 0x7e, 0x00, 0x7e, 0x7e,
  0x7e, 0x7e, 0x7e, 0x6d, 0x7e, 0x7e, 0x7e, 0x7e, 0x00, 0x7e, 0x7e, 0x7d,
  0x7e, 0x7e, 0x7e, 0x7a, 0x7e, 0x7e, 0x7e, 0x00, 0x78, 0x7e, 0x7e, 0x00,
  0x00, 0x7e, 0x7d, 0x7e, 0x7e, 0x7e, 0x7e, 0x7e, 0x7e, 0x7e, 0x7e, 0x7d,
  0x7e, 0x7e, 0x7e, 0x7e, 0x7e, 0x7f, 0x7e, 0x7e, 0x7e, 0x7e, 0x00, 0x00,
  0x7e, 0x7e, 0x7e, 0x7e, 0x7e, 0x7e, 0x34, 0x6c, 0x40, 0x7e, 0x63, 0x00,
  0x7e, 0x00, 0x7e, 0x7e, 0x7e, 0x7e, 0x7e, 0x6d, 0x7e, 0x7e, 0x7e, 0x7e,
  0x00, 0x7e, 0x7e, 0x7d, 0x7e, 0x7e, 0x7e, 0x7a, 0x7e, 0x7d, 0x7e, 0x00,
  0x78, 0x7e, 0x7e, 0x00, 0x00, 0x7e, 0x7d, 0x7e, 0x7e, 0x7e, 0x7e, 0x7e,
  0x7e, 0x7e, 0x7e, 0x7d, 0x7e, 0x7e, 0x7e, 0x7e, 0x7e, 0x7e, 0x7e, 0x7e,
  0x7e, 0x7e, 0x00, 0x00, 0x7e, 0x7e, 0x7e, 0x7e, 0x7e, 0x7e, 0x34, 0x6c,
  0x40, 0x7d, 0x63, 0x00, 0x7e, 0x00, 0x7e, 0x7e, 0x7e, 0x7e, 0x7e, 0x6d,
  0x7e, 0x7e, 0x7e, 0x7e, 0x00, 0x7e, 0x7e, 0x7d, 0x7e, 0x7e, 0x7e, 0x7a,
  0x7e, 0x7e, 0x7e, 0x00, 0x78, 0x7e, 0x7e, 0x00, 0x00, 0x7e, 0x7d, 0x7e,
  0x7e, 0x7e, 0x7e, 0x7e, 0x7e, 0x7e, 0x7e, 0x7d, 0x7e, 0x7e, 0x7e, 0x7e,
  0x7e, 0x7e, 0x7e, 0x7e, 0x7e, 0x7e, 0x00, 0x00, 0x7e, 0x7e, 0x7e, 0x7e,
  0x7e, 0x7e, 0x33, 0x6c, 0x40, 0x7e, 0x62, 0x00, 0x7e, 0x00, 0x7e, 0x7e,
  0x7e, 0x7e, 0x7e, 0x6d, 0x7e, 0x7e, 0x7e, 0x7e, 0x00, 0x7e, 0x7e, 0x7d,
  0x7e, 0x7e, 0x7e, 0x7a, 0x7e, 0x7e, 0x7e, 0x00, 0x78, 0x7e, 0x7e, 0x00,
  0x00, 0x7e, 0x7d, 0x7e, 0x7e, 0x7e, 0x7e, 0x7e, 0x7e, 0x7e, 0x7e, 0x7d,
  0x7e, 0x7e, 0x7e, 0x7e, 0x7e, 0x7e, 0x7e, 0x7e, 0x7e, 0x7e, 0x00, 0x00,
  0x7e, 0x7e, 0x7e, 0x7e, 0x7e, 0x7e, 0x33, 0x6c, 0x40, 0x7e, 0x63, 0x00,
  0x7e, 0x00, 0x7e, 0x7e, 0x7e, 0x7d, 0x7e, 0x6d, 0x7e, 0x7e, 0x7e, 0x7e,
  0x00, 0x7e, 0x7e, 0x7d, 0x7e, 0x7e, 0x7e, 0x7a, 0x7e, 0x7d, 0x7e, 0x00,
  0x78, 0x7e, 0x7e, 0x00, 0x00, 0x00, 0x00, 0x00, 0x00, 0x00, 0x00, 0x00,
  0x00, 0x00, 0x00, 0x00, 0x00, 0x00, 0x00, 0x00, 0x00, 0x00, 0x00, 0x00,
  0x00, 0x00, 0x00, 0x00, 0x00, 0x00, 0x00, 0x00, 0x00, 0x00, 0x00, 0x00,
  0x00, 0x00, 0x00, 0x00, 0x00, 0x00, 0x00, 0x00, 0x00, 0x00, 0x00, 0x00,
  0x00, 0x00, 0x00, 0x00, 0x00, 0x00, 0x00, 0x00, 0x00, 0x00, 0x00, 0x00,
  0x00, 0x00, 0x00, 0x00, 0x00, 0x00, 0x00, 0x00, 0x00, 0x7e, 0x7d, 0x7e,
  0x7e, 0x7e, 0x7e, 0x7e, 0x7e, 0x7e, 0x7e, 0x7d, 0x7e, 0x7e, 0x7e, 0x7e,
  0x7e, 0x7e, 0x7e, 0x7e, 0x7e, 0x7e, 0x00, 0x00, 0x7e, 0x7e, 0x7e, 0x7e,
  0x7e, 0x7e, 0x34, 0x6b, 0x40, 0x7d, 0x63, 0x00, 0x7e, 0x00, 0x7e, 0x7e,
  0x7e, 0x7d, 0x7e, 0x6d, 0x7e, 0x7e, 0x7e, 0x7e, 0x00, 0x7e, 0x7e, 0x7d,
  0x7e, 0x7e, 0x7e, 0x7a, 0x7e, 0x7d, 0x7e, 0x00, 0x78, 0x7e, 0x7e, 0x00,
  0x00, 0x7e, 0x7d, 0x7e, 0x7e, 0x7e, 0x7e, 0x7e, 0x7e, 0x7e, 0x7e, 0x7d,
  0x7e, 0x7e, 0x7e, 0x7e, 0x7e, 0x7e, 0x7e, 0x7e, 0x7e, 0x7e, 0x00, 0x00,
  0x7e, 0x7e, 0x7e, 0x7e, 0x7e, 0x7e, 0x34, 0x6b, 0x40, 0x7e, 0x63, 0x00,
  0x7e, 0x00, 0x7e, 0x7e, 0x7e, 0x7d, 0x7e, 0x6d, 0x7e, 0x7e, 0x7e, 0x7e,
  0x00, 0x7e, 0x7e, 0x7d, 0x7e, 0x7e, 0x7e, 0x7a, 0x7e, 0x7e, 0x7e, 0x00,
  0x78, 0x7e, 0x7e, 0x00, 0x00, 0x7e, 0x7d, 0x7e, 0x7e, 0x7e, 0x7e, 0x7e,
  0x7e, 0x7e, 0x7e, 0x7d, 0x7f, 0x7e, 0x7f, 0x7e, 0x7e, 0x7e, 0x7f, 0x7e,
  0x7e, 0x7e, 0x00, 0x00, 0x7e, 0x7f, 0x7e, 0x7e, 0x7e, 0x7e, 0x34, 0x6c,
  0x40, 0x7d, 0x62, 0x00, 0x7f, 0x00, 0x7e, 0x7e, 0x7e, 0x7e, 0x7e, 0x6d,
  0x7e, 0x7f, 0x7e, 0x7e, 0x00, 0x7e, 0x7e, 0x7d, 0x7e, 0x7e, 0x7e, 0x7a,
  0x7f, 0x7e, 0x7f, 0x00, 0x78, 0x7e, 0x7e, 0x00, 0x00, 0x7e, 0x7d, 0x7e,
  0x7e, 0x7e, 0x7e, 0x7e, 0x7e, 0x7e, 0x7e, 0x7d, 0x7e, 0x7e, 0x7e, 0x7e,
  0x7e, 0x7e, 0x7e, 0x7e, 0x7e, 0x7e, 0x00, 0x00, 0x7e, 0x7e, 0x7e, 0x7e,
  0x7e, 0x7e, 0x34, 0x6c, 0x41, 0x7d, 0x63, 0x00, 0x7e, 0x00, 0x7e, 0x7e,
  0x7e, 0x7e, 0x7e, 0x6d, 0x7e, 0x7e, 0x7e, 0x7e, 0x00, 0x7e, 0x7e, 0x7d,
  0x7e, 0x7e, 0x7e, 0x7a, 0x7e, 0x7d, 0x7e, 0x00, 0x78, 0x7e, 0x7e, 0x00,
  0x00, 0x7e, 0x7d, 0x7e, 0x7e, 0x7e, 0x7e, 0x7e, 0x7e, 0x7e, 0x7e, 0x7d,
  0x7e, 0x7e, 0x7e, 0x7e, 0x7e, 0x7e, 0x7e, 0x7e, 0x7e, 0x7e, 0x00, 0x00,
  0x7e, 0x7e, 0x7e, 0x7e, 0x7e, 0x7e, 0x34, 0x6c, 0x40, 0x7d, 0x62, 0x00,
  0x7e, 0x00, 0x7e, 0x7e, 0x7e, 0x7e, 0x7e, 0x6d, 0x7e, 0x7e, 0x7f, 0x7e,
  0x00, 0x7e, 0x7e, 0x7d, 0x7e, 0x7e, 0x7e, 0x7a, 0x7f, 0x7e, 0x7e, 0x00,
  0x78, 0x7e, 0x7e, 0x00, 0x00, 0x7e, 0x7d, 0x7e, 0x7e, 0x7e, 0x7e, 0x7e,
  0x7e, 0x7e, 0x7e, 0x7d, 0x7e, 0x7e, 0x7e, 0x7e, 0x7e, 0x7e, 0x7e, 0x7e,
  0x7e, 0x7e, 0x00, 0x00, 0x7e, 0x7e, 0x7e, 0x7e, 0x7e, 0x7e, 0x34, 0x6b,
  0x40, 0x7d, 0x63, 0x00, 0x7e, 0x00, 0x7e, 0x7e, 0x7e, 0x7e, 0x7e, 0x6d,
  0x7e, 0x7e, 0x7e, 0x7e, 0x00, 0x7e, 0x7e, 0x7d, 0x7e, 0x7e, 0x7e, 0x7a,
  0x7e, 0x7e, 0x7e, 0x00, 0x78, 0x7e, 0x7e, 0x00, 0x00, 0x7e, 0x7d, 0x7e,
  0x7e, 0x7e, 0x7e, 0x7e, 0x7e, 0x7e, 0x7e, 0x7d, 0x7e, 0x7e, 0x7e, 0x7e,
  0x7e, 0x7e, 0x7e, 0x7e, 0x7e, 0x7e, 0x00, 0x00, 0x7e, 0x7e, 0x7e, 0x7e,
  0x7e, 0x7e, 0x34, 0x6c, 0x41, 0x7d, 0x63, 0x00, 0x7e, 0x00, 0x7e, 0x7e,
  0x7e, 0x7d, 0x7e, 0x6d, 0x7e, 0x7e, 0x7e, 0x7e, 0x00, 0x7e, 0x7e, 0x7d,
  0x7e, 0x7e, 0x7e, 0x7a, 0x7e, 0x7e, 0x7e, 0x00, 0x78, 0x7e, 0x7e, 0x00,
  0x00, 0x7d, 0x7d, 0x7d, 0x7d, 0x7d, 0x7d, 0x7d, 0x7d, 0x7d, 0x7d, 0x7d,
  0x7d, 0x7d, 0x7d, 0x7d, 0x7d, 0x7d, 0x7d, 0x7d, 0x7d, 0x7d, 0x00, 0x00,
  0x7d, 0x7d, 0x7d, 0x7d, 0x7d, 0x7d, 0x34, 0x6c, 0x40, 0x7d, 0x63, 0x00,
  0x7d, 0x00, 0x7d, 0x7d, 0x7d, 0x7d, 0x7d, 0x6d, 0x7d, 0x7d, 0x7d, 0x7d,
  0x00, 0x7d, 0x7d, 0x7d, 0x7d, 0x7d, 0x7d, 0x7a, 0x7d, 0x7d, 0x7d, 0x00,
  0x78, 0x7d, 0x7d, 0x00, 0x00, 0x7e, 0x7d, 0x7e, 0x7e, 0x7e, 0x7e, 0x7e,
  0x7e, 0x7e, 0x7e, 0x7d, 0x7e, 0x7e, 0x7e, 0x7e, 0x7e, 0x7e, 0x7e, 0x7e,
  0x7e, 0x7e, 0x00, 0x00, 0x7e, 0x7e, 0x7e, 0x7e, 0x7e, 0x7e, 0x34, 0x6c,
  0x41, 0x7d, 0x63, 0x00, 0x7e, 0x00, 0x7e, 0x7e, 0x7e, 0x7e, 0x7e, 0x6d,
  0x7e, 0x7e, 0x7f, 0x7e, 0x00, 0x7e, 0x7e, 0x7d, 0x7e, 0x7e, 0x7e, 0x7a,
  0x7e, 0x7e, 0x7e, 0x00, 0x78, 0x7e, 0x7e, 0x00, 0x00, 0x7e, 0x7d, 0x7e,
  0x7e, 0x7e, 0x7e, 0x7e, 0x7e, 0x7e, 0x7e, 0x7d, 0x7e, 0x7e, 0x7e, 0x7e,
  0x7e, 0x7e, 0x7e, 0x7e, 0x7e, 0x7e, 0x00, 0x00, 0x7e, 0x7e, 0x7e, 0x7e,
  0x7e, 0x7e, 0x34, 0x6c, 0x41, 0x7d, 0x63, 0x00, 0x7e, 0x00, 0x7e, 0x7e,
  0x7e, 0x7d, 0x7e, 0x6d, 0x7e, 0x7e, 0x7e, 0x7e, 0x00, 0x7e, 0x7e, 0x7d,
  0x7e, 0x7e, 0x7e, 0x7a, 0x7e, 0x7e, 0x7e, 0x00, 0x78, 0x7e, 0x7e, 0x00,
  0x9e, 0xb9, 0xff, 0xff, 0x04, 0x00, 0x00, 0x00, 0x00, 0x10, 0x00, 0x00,
  0x00, 0x00, 0x00, 0x00, 0x00, 0x00, 0x00, 0x00, 0x00, 0x00, 0x00, 0x00,
  0x00, 0x00, 0x00, 0x00, 0x00, 0x00, 0x00, 0x00, 0x00, 0x00, 0x00, 0x00,
  0x00, 0x00, 0x00, 0x00, 0x00, 0x00, 0x00, 0x00, 0x00, 0x00, 0x00, 0x00,
  0x00, 0x00, 0x00, 0x00, 0x00, 0x00, 0x00, 0x00, 0x00, 0x00, 0x00, 0x00,
  0x00, 0x00, 0x00, 0x00, 0x00, 0x00, 0x00, 0x00, 0x00, 0x00, 0x00, 0x00,
  0x00, 0x00, 0x00, 0x00, 0x7e, 0x7e, 0x7f, 0x7e, 0x7e, 0x7e, 0x7e, 0x7e,
  0x7e, 0x7e, 0x7e, 0x00, 0x7e, 0x7e, 0x7e, 0x7e, 0x00, 0x7e, 0x7e, 0x7e,
  0x7e, 0x7e, 0x7e, 0x7e, 0x7e, 0x7e, 0x7e, 0x94, 0x00, 0x7e, 0x00, 0x7e,
  0x7e, 0x7e, 0x7e, 0x7e, 0x94, 0x7e, 0x00, 0x93, 0x7e, 0x7f, 0x7e, 0x7e,
  0x94, 0x00, 0x7e, 0x7e, 0x7e, 0x7e, 0x7f, 0x7e, 0x7e, 0x7e, 0x7e, 0x93,
  0x7f, 0x7e, 0x7e, 0x7e, 0x7e, 0x7e, 0x7e, 0x7e, 0x7d, 0x7d, 0x7d, 0x7d,
  0x7d, 0x7d, 0x7d, 0x7d, 0x7d, 0x7d, 0x7d, 0x00, 0x7d, 0x7d, 0x7d, 0x7d,
  0x00, 0x7d, 0x7d, 0x7d, 0x7d, 0x7d, 0x7d, 0x7d, 0x7d, 0x7d, 0x7d, 0x95,
  0x00, 0x7d, 0x00, 0x7d, 0x7d, 0x7d, 0x7d, 0x7d, 0x94, 0x7d, 0x00, 0x94,
  0x7d, 0x7d, 0x7d, 0x7d, 0x94, 0x00, 0x7d, 0x7d, 0x7d, 0x7d, 0x7d, 0x7d,
  0x7d, 0x7d, 0x7d, 0x93, 0x7d, 0x7d, 0x7d, 0x7d, 0x7d, 0x7d, 0x7d, 0x7d,
  0x7e, 0x7e, 0x7e, 0x7e, 0x7e, 0x7e, 0x7e, 0x7e, 0x7e, 0x7e, 0x7e, 0x00,
  0x7e, 0x7e, 0x7e, 0x7e, 0x00, 0x7e, 0x7e, 0x7e, 0x7e, 0x7e, 0x7e, 0x7e,
  0x7e, 0x7e, 0x7e, 0x95, 0x00, 0x7e, 0x00, 0x7f, 0x7e, 0x7e, 0x7e, 0x7e,
  0x94, 0x7e, 0x00, 0x93, 0x7e, 0x7e, 0x7e, 0x7e, 0x93, 0x00, 0x7e, 0x7e,
  0x7e, 0x7e, 0x7e, 0x7e, 0x7e, 0x7e, 0x7e, 0x93, 0x7f, 0x7e, 0x7e, 0x7e,
  0x7e, 0x7e, 0x7e, 0x7f, 0x7e, 0x7e, 0x7e, 0x7e, 0x7e, 0x7e, 0x7e, 0x7e,
  0x7e, 0x7e, 0x7e, 0x00, 0x7e, 0x7e, 0x7e, 0x7e, 0x00, 0x7e, 0x7e, 0x7e,
  0x7e, 0x7e, 0x7e, 0x7e, 0x7e, 0x7e, 0x7e, 0x95, 0x00, 0x7e, 0x00, 0x7e,
  0x7e, 0x7d, 0x7e, 0x7e, 0x94, 0x7e, 0x00, 0x93, 0x7e, 0x7e, 0x7e, 0x7e,
  0x93, 0x00, 0x7e, 0x7e, 0x7e, 0x7e, 0x7e, 0x7e, 0x7e, 0x7e, 0x7e, 0x93,
  0x7e, 0x7e, 0x7e, 0x7e, 0x7e, 0x7e, 0x7e, 0x7e, 0x7e, 0x7e, 0x7e, 0x7e,
  0x7e, 0x7e, 0x7e, 0x7e, 0x7e, 0x7e, 0x7e, 0x00, 0x7e, 0x7e, 0x7e, 0x7e,
  0x00, 0x7e, 0x7e, 0x7e, 0x7e, 0x7e, 0x7e, 0x7e, 0x7e, 0x7e, 0x7e, 0x94,
  0x00, 0x7e, 0x00, 0x7e, 0x7e, 0x7e, 0x7e, 0x7e, 0x94, 0x7e, 0x00, 0x93,
  0x7e, 0x7e, 0x7e, 0x7e, 0x94, 0x00, 0x7e, 0x7e, 0x7e, 0x7e, 0x7e, 0x7e,
  0x7e, 0x7e, 0x7e, 0x93, 0x7e, 0x7e, 0x7e, 0x7e, 0x7e, 0x7e, 0x7e, 0x7f,
  0x7e, 0x7e, 0x7e, 0x7e, 0x7e, 0x7e, 0x7e, 0x7e, 0x7e, 0x7e, 0x7e, 0x00,
  0x7e, 0x7e, 0x7e, 0x7e, 0x00, 0x7e, 0x7e, 0x7e, 0x7e, 0x7e, 0x7e, 0x7e,
  0x7e, 0x7e, 0x7e, 0x95, 0x00, 0x7f, 0x00, 0x7f, 0x7e, 0x7d, 0x7e, 0x7e,
  0x94, 0x7e, 0x00, 0x93, 0x7e, 0x7f, 0x7e, 0x7e, 0x94, 0x00, 0x7e, 0x7e,
  0x7e, 0x7f, 0x7f, 0x7e, 0x7e, 0x7e, 0x7e, 0x93, 0x7f, 0x7e, 0x7e, 0x7e,
  0x7f, 0x7e, 0x7e, 0x7e, 0x7e, 0x7e, 0x7e, 0x7e, 0x7e, 0x7e, 0x7e, 0x7e,
  0x7e, 0x7e, 0x7e, 0x00, 0x7e, 0x7e, 0x7e, 0x7e, 0x00, 0x7e, 0x7e, 0x7e,
  0x7e, 0x7e, 0x7e, 0x7e, 0x7e, 0x7e, 0x7e, 0x95, 0x00, 0x7e, 0x00, 0x7e,
  0x7e, 0x7e, 0x7e, 0x7e, 0x94, 0x7e, 0x00, 0x93, 0x7e, 0x7e, 0x7e, 0x7e,
  0x94, 0x00, 0x7e, 0x7e, 0x7e, 0x7e, 0x7e, 0x7e, 0x7e, 0x7e, 0x7e, 0x93,
  0x7e, 0x7e, 0x7e, 0x7e, 0x7e, 0x7e, 0x7e, 0x7e, 0x7e, 0x7e, 0x7e, 0x7e,
  0x7e, 0x7e, 0x7e, 0x7e, 0x7e, 0x7e, 0x7e, 0x00, 0x7e, 0x7e, 0x7e, 0x7e,
  0x00, 0x7e, 0x7e, 0x7e, 0x7e, 0x7e, 0x7e, 0x7e, 0x7e, 0x7e, 0x7e, 0x94,
  0x00, 0x7e, 0x00, 0x7e, 0x7e, 0x7e, 0x7e, 0x7e, 0x94, 0x7e, 0x00, 0x93,
  0x7e, 0x7e, 0x7e, 0x7e, 0x93, 0x00, 0x7e, 0x7e, 0x7e, 0x7e, 0x7e, 0x7e,
  0x7e, 0x7e, 0x7e, 0x93, 0x7e, 0x7e, 0x7e, 0x7e, 0x7e, 0x7e, 0x7e, 0x7e,
  0x7e, 0x7e, 0x7e, 0x7e, 0x7e, 0x7e, 0x7e, 0x7e, 0x7e, 0x7e, 0x7e, 0x00,
  0x7e, 0x7e, 0x7e, 0x7e, 0x00, 0x7e, 0x7e, 0x7e, 0x7e, 0x7e, 0x7e, 0x7e,
  0x7e, 0x7e, 0x7e, 0x95, 0x00, 0x7e, 0x00, 0x7e, 0x7e, 0x7e, 0x7e, 0x7e,
  0x94, 0x7e, 0x00, 0x93, 0x7e, 0x7e, 0x7e, 0x7e, 0x94, 0x00, 0x7e, 0x7e,
  0x7e, 0x7e, 0x7e, 0x7e, 0x7e, 0x7e, 0x7e, 0x93, 0x7e, 0x7e, 0x7e, 0x7e,
  0x7e, 0x7e, 0x7e, 0x7e, 0x7e, 0x7e, 0x7e, 0x7e, 0x7e, 0x7e, 0x7e, 0x7e,
  0x7e, 0x7e, 0x7e, 0x00, 0x7e, 0x7e, 0x7e, 0x7e, 0x00, 0x7e, 0x7e, 0x7e,
  0x7e, 0x7e, 0x7e, 0x7e, 0x7e, 0x7e, 0x7e, 0x94, 0x00, 0x7f, 0x00, 0x7f,
  0x7e, 0x7d, 0x7e, 0x7e, 0x94, 0x7e, 0x00, 0x93, 0x7e, 0x7e, 0x7e, 0x7e,
  0x94, 0x00, 0x7e, 0x7e, 0x7e, 0x7e, 0x7e, 0x7e, 0x7e, 0x7e, 0x7e, 0x93,
  0x7e, 0x7e, 0x7e, 0x7e, 0x7e, 0x7e, 0x7e, 0x7e, 0x7d, 0x7d, 0x7d, 0x7d,
  0x7d, 0x7d, 0x7d, 0x7d, 0x7d, 0x7d, 0x7d, 0x00, 0x7d, 0x7d, 0x7d, 0x7d,
  0x00, 0x7d, 0x7d, 0x7d, 0x7d, 0x7d, 0x7d, 0x7d, 0x7d, 0x7d, 0x7d, 0x95,
  0x00, 0x7d, 0x00, 0x7d, 0x7d, 0x7d, 0x7d, 0x7d, 0x94, 0x7d, 0x00, 0x94,
  0x7d, 0x7d, 0x7d, 0x7d, 0x94, 0x00, 0x7d, 0x7d, 0x7d, 0x7d, 0x7d, 0x7d,
  0x7d, 0x7d, 0x7d, 0x94, 0x7d, 0x7d, 0x7d, 0x7d, 0x7d, 0x7d, 0x7d, 0x7d,
  0x7e, 0x7e, 0x7e, 0x7e, 0x7d, 0x7e, 0x7e, 0x7e, 0x7e, 0x7e, 0x7f, 0x00,
  0x7e, 0x7e, 0x7e, 0x7e, 0x00, 0x7e, 0x7f, 0x7e, 0x7e, 0x7f, 0x7e, 0x7e,
  0x7e, 0x7e, 0x7e, 0x95, 0x00, 0x7e, 0x00, 0x7f, 0x7e, 0x7e, 0x7e, 0x7e,
  0x94, 0x7f, 0x00, 0x93, 0x7e, 0x7e, 0x7f, 0x7e, 0x94, 0x00, 0x7e, 0x7e,
  0x7f, 0x7f, 0x7f, 0x7e, 0x7e, 0x7e, 0x7e, 0x93, 0x7f, 0x7e, 0x7e, 0x7f,
  0x7f, 0x7e, 0x7e, 0x7f, 0x7e, 0x7e, 0x7e, 0x7e, 0x7e, 0x7e, 0x7e, 0x7e,
  0x7e, 0x7e, 0x7e, 0x00, 0x7e, 0x7e, 0x7e, 0x7e, 0x00, 0x7e, 0x7e, 0x7e,
  0x7e, 0x7e, 0x7e, 0x7e, 0x7e, 0x7e, 0x7e, 0x95, 0x00, 0x7e, 0x00, 0x7e,
  0x7e, 0x7d, 0x7e, 0x7e, 0x94, 0x7e, 0x00, 0x93, 0x7e, 0x7e, 0x7e, 0x7e,
  0x93, 0x00, 0x7e, 0x7e, 0x7e, 0x7e, 0x7e, 0x7e, 0x7e, 0x7e, 0x7e, 0x93,
  0x7e, 0x7e, 0x7e, 0x7e, 0x7e, 0x7e, 0x7e, 0x7e, 0x7e, 0x7e, 0x7e, 0x7e,
  0x7e, 0x7e, 0x7e, 0x7e, 0x7e, 0x7e, 0x7f, 0x00, 0x7e, 0x7e, 0x7e, 0x7e,
  0x00, 0x7f, 0x7e, 0x7e, 0x7e, 0x7e, 0x7e, 0x7e, 0x7e, 0x7e, 0x7e, 0x94,
  0x00, 0x7e, 0x00, 0x7e, 0x7e, 0x7e, 0x7e, 0x7e, 0x94, 0x7e, 0x00, 0x93,
  0x7e, 0x7e, 0x7f, 0x7e, 0x94, 0x00, 0x7e, 0x7e, 0x7f, 0x7e, 0x7f, 0x7e,
  0x7e, 0x7e, 0x7e, 0x93, 0x7e, 0x7e, 0x7e, 0x7e, 0x7e, 0x7e, 0x7e, 0x7e,
  0x7e, 0x7e, 0x7e, 0x7e, 0x7d, 0x7e, 0x7e, 0x7e, 0x7e, 0x7e, 0x7e, 0x00,
  0x7e, 0x7e, 0x7e, 0x7e, 0x00, 0x7e, 0x7e, 0x7e, 0x7e, 0x7e, 0x7e, 0x7e,
  0x7e, 0x7e, 0x7e, 0x94, 0x00, 0x7f, 0x00, 0x7f, 0x7e, 0x7e, 0x7e, 0x7e,
  0x94, 0x7e, 0x00, 0x93, 0x7e, 0x7e, 0x7f, 0x7e, 0x93, 0x00, 0x7e, 0x7e,
  0x7e, 0x7e, 0x7f, 0x7e, 0x7e, 0x7e, 0x7e, 0x93, 0x7e, 0x7e, 0x7e, 0x7e,
  0x7e, 0x7e, 0x7e, 0x7e, 0x7e, 0x7e, 0x7e, 0x7e, 0x7d, 0x7e, 0x7e, 0x7e,
  0x7e, 0x7e, 0x7e, 0x00, 0x7e, 0x7e, 0x7e, 0x7e, 0x00, 0x7f, 0x7e, 0x7e,
  0x7e, 0x7e, 0x7e, 0x7e, 0x7e, 0x7e, 0x7e, 0x94, 0x00, 0x7e, 0x00, 0x7f,
  0x7e, 0x7e, 0x7e, 0x7e, 0x94, 0x7e, 0x00, 0x93, 0x7e, 0x7e, 0x7e, 0x7e,
  0x94, 0x00, 0x7e, 0x7e, 0x7e, 0x7f, 0x7e, 0x7e, 0x7e, 0x7e, 0x7e, 0x93,
  0x7f, 0x7e, 0x7e, 0x7e, 0x7e, 0x7e, 0x7f, 0x7f, 0x7e, 0x7e, 0x7e, 0x7e,
  0x7e, 0x7e, 0x7e, 0x7e, 0x7e, 0x7e, 0x7e, 0x00, 0x7e, 0x7e, 0x7e, 0x7e,
  0x00, 0x7e, 0x7e, 0x7e, 0x7e, 0x7f, 0x7e, 0x7e, 0x7e, 0x7e, 0x7e, 0x94,
  0x00, 0x7e, 0x00, 0x7e, 0x7e, 0x7e, 0x7e, 0x7e, 0x94, 0x7e, 0x00, 0x93,
  0x7e, 0x7e, 0x7e, 0x7e, 0x94, 0x00, 0x7e, 0x7e, 0x7f, 0x7f, 0x7f, 0x7e,
  0x7e, 0x7e, 0x7e, 0x93, 0x7f, 0x7e, 0x7e, 0x7e, 0x7f, 0x7e, 0x7f, 0x7f,
  0x7e, 0x7e, 0x7e, 0x7e, 0x7d, 0x7e, 0x7e, 0x7e, 0x7f, 0x7e, 0x7f, 0x00,
  0x7e, 0x7e, 0x7e, 0x7e, 0x00, 0x7e, 0x7e, 0x7e, 0x7e, 0x7e, 0x7e, 0x7e,
  0x7e, 0x7e, 0x7e, 0x94, 0x00, 0x7e, 0x00, 0x7f, 0x7e, 0x7e, 0x7e, 0x7e,
  0x94, 0x7e, 0x00, 0x93, 0x7e, 0x7e, 0x7e, 0x7e, 0x94, 0x00, 0x7e, 0x7e,
  0x7e, 0x7f, 0x7f, 0x7e, 0x7e, 0x7e, 0x7e, 0x93, 0x7e, 0x7e, 0x7e, 0x7e,
  0x7e, 0x7e, 0x7e, 0x7e, 0x7e, 0x7e, 0x7e, 0x7e, 0x7d, 0x7e, 0x7e, 0x7e,
  0x7e, 0x7e, 0x7e, 0x00, 0x7e, 0x7e, 0x7e, 0x7e, 0x00, 0x7e, 0x7e, 0x7e,
  0x7e, 0x7e, 0x7e, 0x7e, 0x7e, 0x7e, 0x7e, 0x95, 0x00, 0x7e, 0x00, 0x7f,
  0x7e, 0x7d, 0x7e, 0x7e, 0x94, 0x7e, 0x00, 0x93, 0x7e, 0x7e, 0x7e, 0x7e,
  0x94, 0x00, 0x7e, 0x7e, 0x7f, 0x7e, 0x7e, 0x7e, 0x7e, 0x7e, 0x7e, 0x93,
  0x7e, 0x7e, 0x7e, 0x7e, 0x7e, 0x7e, 0x7e, 0x7e, 0x7e, 0x7e, 0x7e, 0x7e,
  0x7e, 0x7e, 0x7e, 0x7e, 0x7e, 0x7e, 0x7e, 0x00, 0x7e, 0x7e, 0x7e, 0x7e,
  0x00, 0x7e, 0x7e, 0x7e, 0x7e, 0x7e, 0x7e, 0x7e, 0x7e, 0x7e, 0x7e, 0x94,
  0x00, 0x7f, 0x00, 0x7e, 0x7e, 0x7e, 0x7e, 0x7e, 0x94, 0x7e, 0x00, 0x93,
  0x7e, 0x7e, 0x7e, 0x7e, 0x93, 0x00, 0x7e, 0x7e, 0x7e, 0x7e, 0x7e, 0x7e,
  0x7e, 0x7e, 0x7e, 0x93, 0x7f, 0x7e, 0x7e, 0x7e, 0x7f, 0x7e, 0x7e, 0x7f,
  0x7e, 0x7e, 0x7e, 0x7e, 0x7e, 0x7e, 0x7e, 0x7e, 0x7e, 0x7e, 0x7e, 0x00,
  0x7e, 0x7e, 0x7e, 0x7e, 0x00, 0x7e, 0x7e, 0x7e, 0x7e, 0x7e, 0x7e, 0x7e,
  0x7e, 0x7e, 0x7e, 0x94, 0x00, 0x7e, 0x00, 0x7f, 0x7e, 0x7e, 0x7e, 0x7e,
  0x94, 0x7e, 0x00, 0x93, 0x7e, 0x7e, 0x7e, 0x7e, 0x93, 0x00, 0x7e, 0x7e,
  0x7e, 0x7e, 0x7e, 0x7e, 0x7e, 0x7e, 0x7e, 0x93, 0x7e, 0x7e, 0x7e, 0x7e,
  0x7f, 0x7e, 0x7e, 0x7f, 0x00, 0x00, 0x00, 0x00, 0x00, 0x00, 0x00, 0x00,
  0x00, 0x00, 0x00, 0x00, 0x00, 0x00, 0x00, 0x00, 0x00, 0x00, 0x00, 0x00,
  0x00, 0x00, 0x00, 0x00, 0x00, 0x00, 0x00, 0x00, 0x00, 0x00, 0x00, 0x00,
  0x00, 0x00, 0x00, 0x00, 0x00, 0x00, 0x00, 0x00, 0x00, 0x00, 0x00, 0x00,
  0x00, 0x00, 0x00, 0x00, 0x00, 0x00, 0x00, 0x00, 0x00, 0x00, 0x00, 0x00,
  0x00, 0x00, 0x00, 0x00, 0x00, 0x00, 0x00, 0x00, 0x00, 0x00, 0x00, 0x00,
  0x00, 0x00, 0x00, 0x00, 0x00, 0x00, 0x00, 0x00, 0x00, 0x00, 0x00, 0x00,
  0x00, 0x00, 0x00, 0x00, 0x00, 0x00, 0x00, 0x00, 0x00, 0x00, 0x00, 0x00,
  0x00, 0x00, 0x00, 0x00, 0x00, 0x00, 0x00, 0x00, 0x00, 0x00, 0x00, 0x00,
  0x00, 0x00, 0x00, 0x00, 0x00, 0x00, 0x00, 0x00, 0x00, 0x00, 0x00, 0x00,
  0x00, 0x00, 0x00, 0x00, 0x00, 0x00, 0x00, 0x00, 0x00, 0x00, 0x00, 0x00,
  0x7e, 0x7e, 0x7e, 0x7e, 0x7d, 0x7e, 0x7e, 0x7e, 0x7e, 0x7e, 0x7e, 0x00,
  0x7e, 0x7e, 0x7e, 0x7e, 0x00, 0x7e, 0x7e, 0x7e, 0x7e, 0x7e, 0x7e, 0x7e,
  0x7e, 0x7e, 0x7e, 0x94, 0x00, 0x7e, 0x00, 0x7e, 0x7e, 0x7e, 0x7e, 0x7e,
  0x94, 0x7e, 0x00, 0x93, 0x7e, 0x7e, 0x7e, 0x7e, 0x94, 0x00, 0x7e, 0x7e,
  0x7e, 0x7e, 0x7e, 0x7e, 0x7e, 0x7e, 0x7e, 0x93, 0x7e, 0x7e, 0x7e, 0x7e,
  0x7e, 0x7e, 0x7e, 0x7e, 0x7e, 0x7e, 0x7e, 0x7e, 0x7e, 0x7e, 0x7e, 0x7e,
  0x7e, 0x7e, 0x7e, 0x00, 0x7e, 0x7e, 0x7e, 0x7e, 0x00, 0x7e, 0x7e, 0x7e,
  0x7e, 0x7e, 0x7e, 0x7e, 0x7e, 0x7e, 0x7e, 0x95, 0x00, 0x7f, 0x00, 0x7f,
  0x7e, 0x7d, 0x7e, 0x7e, 0x94, 0x7e, 0x00, 0x93, 0x7e, 0x7e, 0x7e, 0x7e,
  0x94, 0x00, 0x7e, 0x7e, 0x7f, 0x7e, 0x7e, 0x7e, 0x7e, 0x7e, 0x7e, 0x93,
  0x7f, 0x7e, 0x7e, 0x7e, 0x7e, 0x7e, 0x7e, 0x7e, 0x7e, 0x7e, 0x7e, 0x7e,
  0x7e, 0x7e, 0x7e, 0x7e, 0x7e, 0x7e, 0x7e, 0x00, 0x7e, 0x7e, 0x7e, 0x7e,
  0x00, 0x7e, 0x7e, 0x7e, 0x7e, 0x7e, 0x7e, 0x7e, 0x7e, 0x7e, 0x7e, 0x94,
  0x00, 0x7e, 0x00, 0x7e, 0x7e, 0x7d, 0x7e, 0x7e, 0x94, 0x7e, 0x00, 0x93,
  0x7e, 0x7e, 0x7e, 0x7e, 0x94, 0x00, 0x7e, 0x7e, 0x7e, 0x7e, 0x7e, 0x7e,
  0x7e, 0x7e, 0x7e, 0x93, 0x7e, 0x7e, 0x7e, 0x7e, 0x7e, 0x7e, 0x7e, 0x7e,
  0x7e, 0x7e, 0x7e, 0x7e, 0x7d, 0x7e, 0x7e, 0x7e, 0x7f, 0x7e, 0x7f, 0x00,
  0x7e, 0x7e, 0x7e, 0x7e, 0x00, 0x7e, 0x7e, 0x7e, 0x7e, 0x7f, 0x7e, 0x7e,
  0x7e, 0x7e, 0x7e, 0x94, 0x00, 0x7e, 0x00, 0x7f, 0x7e, 0x7e, 0x7e, 0x7e,
  0x94, 0x7e, 0x00, 0x93, 0x7e, 0x7e, 0x7e, 0x7e, 0x93, 0x00, 0x7e, 0x7e,
  0x7e, 0x7e, 0x7f, 0x7e, 0x7e, 0x7e, 0x7e, 0x93, 0x7f, 0x7e, 0x7e, 0x7e,
  0x7e, 0x7e, 0x7e, 0x7e, 0x7e, 0x7e, 0x7e, 0x7e, 0x7e, 0x7e, 0x7e, 0x7e,
  0x7e, 0x7e, 0x7e, 0x00, 0x7e, 0x7e, 0x7e, 0x7e, 0x00, 0x7e, 0x7e, 0x7e,
  0x7e, 0x7e, 0x7e, 0x7e, 0x7e, 0x7e, 0x7e, 0x94, 0x00, 0x7e, 0x00, 0x7e,
  0x7e, 0x7e, 0x7e, 0x7e, 0x94, 0x7e, 0x00, 0x93, 0x7e, 0x7e, 0x7e, 0x7e,
  0x94, 0x00, 0x7e, 0x7e, 0x7e, 0x7e, 0x7e, 0x7e, 0x7e, 0x7e, 0x7e, 0x93,
  0x7e, 0x7e, 0x7e, 0x7e, 0x7e, 0x7e, 0x7e, 0x7e, 0x7e, 0x7e, 0x7e, 0x7e,
  0x7d, 0x7e, 0x7e, 0x7e, 0x7e, 0x7e, 0x7e, 0x00, 0x7e, 0x7e, 0x7e, 0x7e,
  0x00, 0x7f, 0x7e, 0x7e, 0x7e, 0x7e, 0x7e, 0x7e, 0x7e, 0x7e, 0x7e, 0x95,
  0x00, 0x7e, 0x00, 0x7f, 0x7e, 0x7e, 0x7e, 0x7e, 0x94, 0x7e, 0x00, 0x93,
  0x7e, 0x7e, 0x7e, 0x7e, 0x94, 0x00, 0x7e, 0x7e, 0x7e, 0x7e, 0x7f, 0x7e,
  0x7e, 0x7e, 0x7e, 0x93, 0x7e, 0x7e, 0x7e, 0x7e, 0x7f, 0x7e, 0x7f, 0x7e,
  0x33, 0x33, 0x34, 0x34, 0x34, 0x34, 0x33, 0x34, 0x34, 0x34, 0x34, 0x00,
  0x34, 0x34, 0x33, 0x33, 0x00, 0x34, 0x33, 0x33, 0x33, 0x34, 0x34, 0x33,
  0x33, 0x34, 0x33, 0xd4, 0x00, 0x33, 0x00, 0x34, 0x34, 0x34, 0x34, 0x34,
  0xd4, 0x34, 0x00, 0xd3, 0x34, 0x34, 0x34, 0x33, 0xd4, 0x00, 0x34, 0x33,
  0x34, 0x34, 0x34, 0x33, 0x34, 0x34, 0x34, 0xd3, 0x33, 0x33, 0x33, 0x34,
  0x34, 0x34, 0x34, 0x34, 0x6b, 0x6c, 0x6c, 0x6c, 0x6c, 0x6c, 0x6c, 0x6c,
  0x6c, 0x6c, 0x6c, 0x00, 0x6b, 0x6c, 0x6b, 0x6c, 0x00, 0x6c, 0x6c, 0x6c,
  0x6c, 0x6c, 0x6b, 0x6b, 0x6b, 0x6c, 0x6c, 0xa4, 0x00, 0x6b, 0x00, 0x6b,
  0x6c, 0x6c, 0x6c, 0x6b, 0xa3, 0x6b, 0x00, 0xa3, 0x6b, 0x6b, 0x6c, 0x6c,
  0xa3, 0x00, 0x6c, 0x6b, 0x6c, 0x6b, 0x6b, 0x6c, 0x6c, 0x6c, 0x6c, 0xa3,
  0x6c, 0x6b, 0x6b, 0x6c, 0x6c, 0x6c, 0x6b, 0x6b, 0x40, 0x40, 0x40, 0x40,
  0x40, 0x40, 0x41, 0x40, 0x40, 0x40, 0x40, 0x00, 0x40, 0x40, 0x40, 0x40,
  0x00, 0x40, 0x40, 0x40, 0x40, 0x40, 0x40, 0x40, 0x40, 0x40, 0x40, 0xc9,
  0x00, 0x40, 0x00, 0x40, 0x40, 0x40, 0x40, 0x40, 0xc9, 0x40, 0x00, 0xc8,
  0x40, 0x40, 0x40, 0x40, 0xc8, 0x00, 0x40, 0x40, 0x40, 0x40, 0x40, 0x40,
  0x40, 0x40, 0x40, 0xc8, 0x40, 0x40, 0x40, 0x40, 0x40, 0x40, 0x40, 0x40,
  0x7e, 0x7e, 0x7d, 0x7d, 0x7d, 0x7d, 0x7d, 0x7d, 0x7d, 0x7e, 0x7d, 0x00,
  0x7d, 0x7d, 0x7d, 0x7d, 0x00, 0x7d, 0x7d, 0x7e, 0x7e, 0x7d, 0x7d, 0x7e,
  0x7d, 0x7d, 0x7d, 0x94, 0x00, 0x7e, 0x00, 0x7d, 0x7d, 0x7d, 0x7d, 0x7d,
  0x94, 0x7d, 0x00, 0x93, 0x7d, 0x7d, 0x7d, 0x7d, 0x94, 0x00, 0x7d, 0x7d,
  0x7e, 0x7d, 0x7d, 0x7d, 0x7d, 0x7d, 0x7d, 0x93, 0x7d, 0x7d, 0x7e, 0x7e,
  0x7e, 0x7e, 0x7d, 0x7d, 0x62, 0x63, 0x62, 0x63, 0x63, 0x62, 0x63, 0x63,
  0x62, 0x63, 0x62, 0x00, 0x62, 0x62, 0x63, 0x63, 0x00, 0x63, 0x62, 0x62,
  0x62, 0x63, 0x63, 0x63, 0x63, 0x62, 0x62, 0xab, 0x00, 0x63, 0x00, 0x63,
  0x62, 0x63, 0x63, 0x63, 0xab, 0x62, 0x00, 0xab, 0x63, 0x63, 0x63, 0x63,
  0xab, 0x00, 0x62, 0x63, 0x62, 0x62, 0x63, 0x62, 0x63, 0x63, 0x63, 0xab,
  0x63, 0x62, 0x63, 0x63, 0x62, 0x63, 0x62, 0x63, 0x00, 0x00, 0x00, 0x00,
  0x00, 0x00, 0x00, 0x00, 0x00, 0x00, 0x00, 0x00, 0x00, 0x00, 0x00, 0x00,
  0x00, 0x00, 0x00, 0x00, 0x00, 0x00, 0x00, 0x00, 0x00, 0x00, 0x00, 0x00,
  0x00, 0x00, 0x00, 0x00, 0x00, 0x00, 0x00, 0x00, 0x00, 0x00, 0x00, 0x00,
  0x00, 0x00, 0x00, 0x00, 0x00, 0x00, 0x00, 0x00, 0x00, 0x00, 0x00, 0x00,
  0x00, 0x00, 0x00, 0x00, 0x00, 0x00, 0x00, 0x00, 0x00, 0x00, 0x00, 0x00,
  0x7e, 0x7e, 0x7f, 0x7e, 0x7e, 0x7e, 0x7e, 0x7e, 0x7e, 0x7e, 0x7e, 0x00,
  0x7e, 0x7e, 0x7e, 0x7e, 0x00, 0x7f, 0x7e, 0x7e, 0x7e, 0x7e, 0x7e, 0x7e,
  0x7e, 0x7e, 0x7e, 0x94, 0x00, 0x7e, 0x00, 0x7f, 0x7e, 0x7e, 0x7e, 0x7e,
  0x94, 0x7e, 0x00, 0x93, 0x7e, 0x7e, 0x7f, 0x7e, 0x94, 0x00, 0x7e, 0x7e,
  0x7f, 0x7e, 0x7f, 0x7e, 0x7e, 0x7e, 0x7e, 0x93, 0x7f, 0x7e, 0x7e, 0x7e,
  0x7f, 0x7e, 0x7e, 0x7f, 0x00, 0x00, 0x00, 0x00, 0x00, 0x00, 0x00, 0x00,
  0x00, 0x00, 0x00, 0x00, 0x00, 0x00, 0x00, 0x00, 0x00, 0x00, 0x00, 0x00,
  0x00, 0x00, 0x00, 0x00, 0x00, 0x00, 0x00, 0x00, 0x00, 0x00, 0x00, 0x00,
  0x00, 0x00, 0x00, 0x00, 0x00, 0x00, 0x00, 0x00, 0x00, 0x00, 0x00, 0x00,
  0x00, 0x00, 0x00, 0x00, 0x00, 0x00, 0x00, 0x00, 0x00, 0x00, 0x00, 0x00,
  0x00, 0x00, 0x00, 0x00, 0x00, 0x00, 0x00, 0x00, 0x7e, 0x7e, 0x7e, 0x7e,
  0x7d, 0x7e, 0x7e, 0x7e, 0x7e, 0x7e, 0x7e, 0x00, 0x7e, 0x7e, 0x7e, 0x7e,
  0x00, 0x7e, 0x7e, 0x7e, 0x7e, 0x7f, 0x7e, 0x7e, 0x7e, 0x7e, 0x7e, 0x94,
  0x00, 0x7e, 0x00, 0x7e, 0x7e, 0x7d, 0x7e, 0x7e, 0x94, 0x7e, 0x00, 0x93,
  0x7e, 0x7f, 0x7e, 0x7e, 0x94, 0x00, 0x7e, 0x7e, 0x7e, 0x7e, 0x7e, 0x7e,
  0x7e, 0x7e, 0x7e, 0x93, 0x7f, 0x7e, 0x7e, 0x7e, 0x7e, 0x7e, 0x7e, 0x7e,
  0x7e, 0x7e, 0x7e, 0x7e, 0x7e, 0x7e, 0x7e, 0x7e, 0x7e, 0x7e, 0x7e, 0x00,
  0x7e, 0x7e, 0x7e, 0x7e, 0x00, 0x7e, 0x7e, 0x7e, 0x7e, 0x7e, 0x7e, 0x7e,
  0x7e, 0x7e, 0x7e, 0x95, 0x00, 0x7e, 0x00, 0x7e, 0x7e, 0x7e, 0x7e, 0x7e,
  0x94, 0x7e, 0x00, 0x93, 0x7e, 0x7e, 0x7e, 0x7e, 0x94, 0x00, 0x7e, 0x7e,
  0x7e, 0x7e, 0x7e, 0x7e, 0x7e, 0x7e, 0x7e, 0x93, 0x7e, 0x7e, 0x7e, 0x7e,
  0x7e, 0x7e, 0x7e, 0x7e, 0x7e, 0x7e, 0x7e, 0x7e, 0x7d, 0x7e, 0x7e, 0x7e,
  0x7e, 0x7e, 0x7e, 0x00, 0x7e, 0x7e, 0x7e, 0x7e, 0x00, 0x7e, 0x7e, 0x7e,
  0x7e, 0x7e, 0x7e, 0x7e, 0x7e, 0x7e, 0x7e, 0x95, 0x00, 0x7e, 0x00, 0x7e,
  0x7e, 0x7e, 0x7e, 0x7e, 0x94, 0x7e, 0x00, 0x93, 0x7e, 0x7e, 0x7e, 0x7e,
  0x93, 0x00, 0x7e, 0x7e, 0x7e, 0x7e, 0x7e, 0x7e, 0x7e, 0x7e, 0x7e, 0x93,
  0x7e, 0x7e, 0x7e, 0x7e, 0x7e, 0x7e, 0x7e, 0x7e, 0x7d, 0x7e, 0x7e, 0x7e,
  0x7d, 0x7e, 0x7d, 0x7e, 0x7e, 0x7e, 0x7e, 0x00, 0x7e, 0x7e, 0x7e, 0x7e,
  0x00, 0x7d, 0x7d, 0x7d, 0x7e, 0x7e, 0x7e, 0x7d, 0x7d, 0x7e, 0x7d, 0x94,
  0x00, 0x7e, 0x00, 0x7e, 0x7e, 0x7e, 0x7e, 0x7e, 0x94, 0x7e, 0x00, 0x93,
  0x7e, 0x7e, 0x7e, 0x7e, 0x94, 0x00, 0x7e, 0x7d, 0x7d, 0x7e, 0x7e, 0x7e,
  0x7d, 0x7d, 0x7d, 0x93, 0x7d, 0x7e, 0x7d, 0x7e, 0x7e, 0x7e, 0x7d, 0x7d,
  0x7e, 0x7e, 0x7e, 0x7e, 0x7e, 0x7e, 0x7e, 0x7e, 0x7e, 0x7e, 0x7e, 0x00,
  0x7e, 0x7e, 0x7e, 0x7e, 0x00, 0x7e, 0x7e, 0x7e, 0x7e, 0x7e, 0x7e, 0x7e,
  0x7e, 0x7e, 0x7e, 0x94, 0x00, 0x7e, 0x00, 0x7e, 0x7e, 0x7d, 0x7e, 0x7e,
  0x94, 0x7e, 0x00, 0x93, 0x7e, 0x7e, 0x7e, 0x7e, 0x93, 0x00, 0x7e, 0x7e,
  0x7e, 0x7e, 0x7e, 0x7e, 0x7e, 0x7e, 0x7e, 0x93, 0x7e, 0x7e, 0x7e, 0x7e,
  0x7e, 0x7e, 0x7e, 0x7e, 0x6d, 0x6d, 0x6d, 0x6d, 0x6d, 0x6d, 0x6d, 0x6d,
  0x6d, 0x6d, 0x6d, 0x00, 0x6d, 0x6d, 0x6d, 0x6d, 0x00, 0x6d, 0x6d, 0x6d,
  0x6d, 0x6d, 0x6d, 0x6d, 0x6d, 0x6d, 0x6d, 0xa2, 0x00, 0x6d, 0x00, 0x6d,
  0x6d, 0x6d, 0x6d, 0x6d, 0xa2, 0x6d, 0x00, 0xa2, 0x6d, 0x6d, 0x6d, 0x6d,
  0xa1, 0x00, 0x6d, 0x6d, 0x6d, 0x6d, 0x6d, 0x6d, 0x6d, 0x6d, 0x6d, 0xa1,
  0x6d, 0x6d, 0x6d, 0x6d, 0x6d, 0x6d, 0x6d, 0x6d, 0x7e, 0x7e, 0x7e, 0x7e,
  0x7d, 0x7e, 0x7e, 0x7e, 0x7e, 0x7e, 0x7e, 0x00, 0x7e, 0x7e, 0x7e, 0x7e,
  0x00, 0x7e, 0x7e, 0x7e, 0x7e, 0x7e, 0x7e, 0x7e, 0x7e, 0x7e, 0x7e, 0x95,
  0x00, 0x7e, 0x00, 0x7e, 0x7e, 0x7e, 0x7e, 0x7e, 0x94, 0x7e, 0x00, 0x93,
  0x7e, 0x7e, 0x7e, 0x7e, 0x94, 0x00, 0x7e, 0x7e, 0x7e, 0x7e, 0x7e, 0x7e,
  0x7e, 0x7e, 0x7e, 0x93, 0x7e, 0x7e, 0x7e, 0x7e, 0x7e, 0x7e, 0x7e, 0x7e,
  0x7e, 0x7e, 0x7e, 0x7e, 0x7e, 0x7e, 0x7e, 0x7e, 0x7e, 0x7e, 0x7e, 0x00,
  0x7e, 0x7e, 0x7e, 0x7e, 0x00, 0x7e, 0x7e, 0x7e, 0x7e, 0x7e, 0x7e, 0x7e,
  0x7e, 0x7e, 0x7e, 0x95, 0x00, 0x7e, 0x00, 0x7f, 0x7e, 0x7e, 0x7e, 0x7e,
  0x94, 0x7e, 0x00, 0x93, 0x7e, 0x7e, 0x7e, 0x7e, 0x94, 0x00, 0x7e, 0x7e,
  0x7e, 0x7f, 0x7e, 0x7e, 0x7e, 0x7e, 0x7e, 0x93, 0x7f, 0x7e, 0x7e, 0x7e,
  0x7e, 0x7e, 0x7e, 0x7e, 0x7e, 0x7e, 0x7e, 0x7e, 0x7d, 0x7e, 0x7e, 0x7e,
  0x7f, 0x7e, 0x7e, 0x00, 0x7e, 0x7e, 0x7e, 0x7e, 0x00, 0x7f, 0x7e, 0x7e,
  0x7e, 0x7e, 0x7e, 0x7e, 0x7e, 0x7e, 0x7f, 0x94, 0x00, 0x7f, 0x00, 0x7f,
  0x7e, 0x7e, 0x7e, 0x7e, 0x94, 0x7e, 0x00, 0x93, 0x7e, 0x7e, 0x7f, 0x7e,
  0x93, 0x00, 0x7e, 0x7e, 0x7e, 0x7f, 0x7f, 0x7f, 0x7e, 0x7e, 0x7e, 0x93,
  0x7f, 0x7e, 0x7e, 0x7e, 0x7f, 0x7e, 0x7f, 0x7f, 0x7e, 0x7e, 0x7e, 0x7e,
  0x7d, 0x7e, 0x7e, 0x7e, 0x7e, 0x7e, 0x7e, 0x00, 0x7e, 0x7e, 0x7e, 0x7e,
  0x00, 0x7e, 0x7e, 0x7e, 0x7e, 0x7e, 0x7e, 0x7e, 0x7e, 0x7e, 0x7e, 0x94,
  0x00, 0x7e, 0x00, 0x7e, 0x7e, 0x7d, 0x7e, 0x7e, 0x94, 0x7e, 0x00, 0x93,
  0x7e, 0x7e, 0x7e, 0x7e, 0x94, 0x00, 0x7e, 0x7e, 0x7e, 0x7e, 0x7e, 0x7e,
  0x7e, 0x7e, 0x7e, 0x93, 0x7e, 0x7e, 0x7e, 0x7e, 0x7e, 0x7e, 0x7e, 0x7e,
  0x00, 0x00, 0x00, 0x00, 0x00, 0x00, 0x00, 0x00, 0x00, 0x00, 0x00, 0x00,
  0x00, 0x00, 0x00, 0x00, 0x00, 0x00, 0x00, 0x00, 0x00, 0x00, 0x00, 0x00,
  0x00, 0x00, 0x00, 0x00, 0x00, 0x00, 0x00, 0x00, 0x00, 0x00, 0x00, 0x00,
  0x00, 0x00, 0x00, 0x00, 0x00, 0x00, 0x00, 0x00, 0x00, 0x00, 0x00, 0x00,
  0x00, 0x00, 0x00, 0x00, 0x00, 0x00, 0x00, 0x00, 0x00, 0x00, 0x00, 0x00,
  0x00, 0x00, 0x00, 0x00, 0x7e, 0x7e, 0x7e, 0x7e, 0x7e, 0x7e, 0x7e, 0x7e,
  0x7e, 0x7e, 0x7e, 0x00, 0x7e, 0x7e, 0x7e, 0x7e, 0x00, 0x7e, 0x7e, 0x7e,
  0x7e, 0x7e, 0x7e, 0x7e, 0x7e, 0x7e, 0x7e, 0x94, 0x00, 0x7e, 0x00, 0x7e,
  0x7e, 0x7e, 0x7e, 0x7e, 0x94, 0x7e, 0x00, 0x93, 0x7e, 0x7e, 0x7e, 0x7e,
  0x94, 0x00, 0x7e, 0x7e, 0x7e, 0x7e, 0x7f, 0x7e, 0x7e, 0x7e, 0x7e, 0x93,
  0x7f, 0x7e, 0x7e, 0x7e, 0x7e, 0x7e, 0x7e, 0x7e, 0x7e, 0x7e, 0x7e, 0x7e,
  0x7d, 0x7e, 0x7e, 0x7e, 0x7e, 0x7e, 0x7e, 0x00, 0x7e, 0x7e, 0x7e, 0x7e,
  0x00, 0x7e, 0x7e, 0x7e, 0x7e, 0x7e, 0x7e, 0x7e, 0x7e, 0x7e, 0x7e, 0x94,
  0x00, 0x7e, 0x00, 0x7e, 0x7e, 0x7e, 0x7e, 0x7e, 0x94, 0x7e, 0x00, 0x93,
  0x7e, 0x7e, 0x7e, 0x7e, 0x93, 0x00, 0x7e, 0x7e, 0x7e, 0x7e, 0x7e, 0x7e,
  0x7e, 0x7e, 0x7e, 0x93, 0x7e, 0x7e, 0x7e, 0x7e, 0x7e, 0x7e, 0x7e, 0x7e,
  0x7d, 0x7d, 0x7d, 0x7d, 0x7d, 0x7d, 0x7d, 0x7d, 0x7d, 0x7d, 0x7d, 0x00,
  0x7d, 0x7d, 0x7d, 0x7d, 0x00, 0x7d, 0x7d, 0x7d, 0x7d, 0x7d, 0x7d, 0x7d,
  0x7d, 0x7d, 0x7d, 0x95, 0x00, 0x7d, 0x00, 0x7d, 0x7d, 0x7d, 0x7d, 0x7d,
  0x94, 0x7d, 0x00, 0x94, 0x7d, 0x7d, 0x7d, 0x7d, 0x94, 0x00, 0x7d, 0x7d,
  0x7d, 0x7d, 0x7d, 0x7d, 0x7d, 0x7d, 0x7d, 0x93, 0x7d, 0x7d, 0x7d, 0x7d,
  0x7d, 0x7d, 0x7d, 0x7d, 0x7e, 0x7e, 0x7e, 0x7e, 0x7d, 0x7e, 0x7e, 0x7e,
  0x7e, 0x7e, 0x7e, 0x00, 0x7e, 0x7e, 0x7e, 0x7e, 0x00, 0x7e, 0x7e, 0x7e,
  0x7e, 0x7e, 0x7e, 0x7e, 0x7e, 0x7e, 0x7e, 0x94, 0x00, 0x7e, 0x00, 0x7e,
  0x7e, 0x7d, 0x7e, 0x7e, 0x94, 0x7e, 0x00, 0x93, 0x7e, 0x7e, 0x7e, 0x7e,
  0x93, 0x00, 0x7e, 0x7e, 0x7e, 0x7e, 0x7e, 0x7e, 0x7e, 0x7e, 0x7e, 0x93,
  0x7e, 0x7e, 0x7e, 0x7e, 0x7e, 0x7e, 0x7e, 0x7e, 0x7e, 0x7e, 0x7e, 0x7e,
  0x7d, 0x7e, 0x7e, 0x7e, 0x7e, 0x7e, 0x7e, 0x00, 0x7e, 0x7e, 0x7e, 0x7e,
  0x00, 0x7e, 0x7e, 0x7e, 0x7e, 0x7e, 0x7e, 0x7e, 0x7e, 0x7e, 0x7e, 0x94,
  0x00, 0x7e, 0x00, 0x7f, 0x7e, 0x7d, 0x7e, 0x7e, 0x94, 0x7e, 0x00, 0x93,
  0x7e, 0x7e, 0x7e, 0x7e, 0x93, 0x00, 0x7e, 0x7e, 0x7e, 0x7e, 0x7e, 0x7e,
  0x7e, 0x7e, 0x7e, 0x93, 0x7f, 0x7e, 0x7e, 0x7e, 0x7e, 0x7e, 0x7e, 0x7e,
  0x7e, 0x7e, 0x7e, 0x7e, 0x7d, 0x7e, 0x7e, 0x7e, 0x7e, 0x7e, 0x7e, 0x00,
  0x7e, 0x7e, 0x7e, 0x7e, 0x00, 0x7e, 0x7e, 0x7e, 0x7e, 0x7e, 0x7e, 0x7e,
  0x7e, 0x7e, 0x7e, 0x95, 0x00, 0x7e, 0x00, 0x7f, 0x7e, 0x7e, 0x7e, 0x7e,
  0x94, 0x7e, 0x00, 0x93, 0x7e, 0x7e, 0x7e, 0x7e, 0x93, 0x00, 0x7e, 0x7e,
  0x7f, 0x7e, 0x7f, 0x7e, 0x7e, 0x7e, 0x7e, 0x93, 0x7e, 0x7e, 0x7e, 0x7e,
  0x7e, 0x7e, 0x7e, 0x7e, 0x7a, 0x7a, 0x7a, 0x7a, 0x7a, 0x7a, 0x7a, 0x7a,
  0x7a, 0x7a, 0x7a, 0x00, 0x7a, 0x7a, 0x7a, 0x7a, 0x00, 0x7a, 0x7a, 0x7a,
  0x7a, 0x7a, 0x7a, 0x7a, 0x7a, 0x7a, 0x7a, 0x97, 0x00, 0x7a, 0x00, 0x7a,
  0x7a, 0x7a, 0x7a, 0x7a, 0x97, 0x7a, 0x00, 0x96, 0x7a, 0x7a, 0x7a, 0x7a,
  0x96, 0x00, 0x7a, 0x7a, 0x7a, 0x7a, 0x7a, 0x7a, 0x7a, 0x7a, 0x7a, 0x96,
  0x7a, 0x7a, 0x7a, 0x7a, 0x7a, 0x7a, 0x7a, 0x7a, 0x7e, 0x7e, 0x7f, 0x7e,
  0x7e, 0x7e, 0x7e, 0x7e, 0x7f, 0x7e, 0x7f, 0x00, 0x7e, 0x7e, 0x7e, 0x7e,
  0x00, 0x7e, 0x7e, 0x7e, 0x7e, 0x7f, 0x7e, 0x7e, 0x7e, 0x7e, 0x7e, 0x94,
  0x00, 0x7f, 0x00, 0x7f, 0x7e, 0x7d, 0x7e, 0x7e, 0x94, 0x7e, 0x00, 0x93,
  0x7e, 0x7e, 0x7e, 0x7e, 0x93, 0x00, 0x7e, 0x7e, 0x7e, 0x7f, 0x7f, 0x7f,
  0x7e, 0x7e, 0x7e, 0x93, 0x7f, 0x7e, 0x7e, 0x7e, 0x7f, 0x7e, 0x7f, 0x7f,
  0x7e, 0x7e, 0x7e, 0x7e, 0x7e, 0x7e, 0x7d, 0x7e, 0x7e, 0x7d, 0x7e, 0x00,
  0x7e, 0x7e, 0x7e, 0x7e, 0x00, 0x7e, 0x7e, 0x7e, 0x7d, 0x7e, 0x7d, 0x7e,
  0x7e, 0x7e, 0x7e, 0x94, 0x00, 0x7e, 0x00, 0x7e, 0x7e, 0x7e, 0x7e, 0x7e,
  0x94, 0x7e, 0x00, 0x93, 0x7d, 0x7d, 0x7e, 0x7e, 0x94, 0x00, 0x7e, 0x7e,
  0x7e, 0x7e, 0x7e, 0x7e, 0x7e, 0x7e, 0x7e, 0x93, 0x7e, 0x7e, 0x7e, 0x7e,
  0x7e, 0x7e, 0x7e, 0x7d, 0x7e, 0x7e, 0x7f, 0x7e, 0x7d, 0x7e, 0x7e, 0x7e,
  0x7e, 0x7e, 0x7e, 0x00, 0x7e, 0x7e, 0x7e, 0x7e, 0x00, 0x7f, 0x7e, 0x7e,
  0x7e, 0x7e, 0x7e, 0x7e, 0x7e, 0x7e, 0x7e, 0x94, 0x00, 0x7e, 0x00, 0x7e,
  0x7e, 0x7e, 0x7e, 0x7e, 0x94, 0x7e, 0x00, 0x93, 0x7e, 0x7e, 0x7e, 0x7e,
  0x93, 0x00, 0x7e, 0x7e, 0x7e, 0x7f, 0x7f, 0x7e, 0x7e, 0x7e, 0x7e, 0x93,
  0x7e, 0x7e, 0x7e, 0x7e, 0x7e, 0x7e, 0x7e, 0x7f, 0x00, 0x00, 0x00, 0x00,
  0x00, 0x00, 0x00, 0x00, 0x00, 0x00, 0x00, 0x00, 0x00, 0x00, 0x00, 0x00,
  0x00, 0x00, 0x00, 0x00, 0x00, 0x00, 0x00, 0x00, 0x00, 0x00, 0x00, 0x00,
  0x00, 0x00, 0x00, 0x00, 0x00, 0x00, 0x00, 0x00, 0x00, 0x00, 0x00, 0x00,
  0x00, 0x00, 0x00, 0x00, 0x00, 0x00, 0x00, 0x00, 0x00, 0x00, 0x00, 0x00,
  0x00, 0x00, 0x00, 0x00, 0x00, 0x00, 0x00, 0x00, 0x00, 0x00, 0x00, 0x00,
  0x78, 0x78, 0x78, 0x78, 0x78, 0x78, 0x78, 0x78, 0x78, 0x78, 0x78, 0x00,
  0x78, 0x78, 0x78, 0x78, 0x00, 0x78, 0x78, 0x78, 0x78, 0x78, 0x78, 0x78,
  0x78, 0x78, 0x78, 0x99, 0x00, 0x78, 0x00, 0x78, 0x78, 0x78, 0x78, 0x78,
  0x98, 0x78, 0x00, 0x98, 0x78, 0x78, 0x78, 0x78, 0x98, 0x00, 0x78, 0x78,
  0x78, 0x78, 0x78, 0x78, 0x78, 0x78, 0x78, 0x98, 0x78, 0x78, 0x78, 0x78,
  0x78, 0x78, 0x78, 0x78, 0x7e, 0x7e, 0x7e, 0x7e, 0x7e, 0x7e, 0x7e, 0x7e,
  0x7e, 0x7e, 0x7e, 0x00, 0x7e, 0x7e, 0x7e, 0x7e, 0x00, 0x7e, 0x7e, 0x7e,
  0x7e, 0x7e, 0x7e, 0x7e, 0x7e, 0x7e, 0x7e, 0x95, 0x00, 0x7e, 0x00, 0x7e,
  0x7e, 0x7d, 0x7e, 0x7e, 0x94, 0x7e, 0x00, 0x93, 0x7e, 0x7e, 0x7e, 0x7e,
  0x94, 0x00, 0x7e, 0x7e, 0x7e, 0x7e, 0x7e, 0x7e, 0x7e, 0x7e, 0x7e, 0x93,
  0x7e, 0x7e, 0x7e, 0x7e, 0x7e, 0x7e, 0x7e, 0x7e, 0x7e, 0x7e, 0x7e, 0x7e,
  0x7e, 0x7e, 0x7e, 0x7e, 0x7e, 0x7e, 0x7e, 0x00, 0x7e, 0x7e, 0x7e, 0x7e,
  0x00, 0x7e, 0x7e, 0x7e, 0x7e, 0x7e, 0x7e, 0x7e, 0x7e, 0x7e, 0x7e, 0x94,
  0x00, 0x7e, 0x00, 0x7e, 0x7e, 0x7e, 0x7e, 0x7e, 0x94, 0x7e, 0x00, 0x93,
  0x7e, 0x7e, 0x7e, 0x7e, 0x94, 0x00, 0x7e, 0x7e, 0x7e, 0x7e, 0x7e, 0x7e,
  0x7e, 0x7e, 0x7e, 0x93, 0x7e, 0x7e, 0x7e, 0x7e, 0x7e, 0x7e, 0x7e, 0x7e,
  0x00, 0x00, 0x00, 0x00, 0x00, 0x00, 0x00, 0x00, 0x00, 0x00, 0x00, 0x00,
  0x00, 0x00, 0x00, 0x00, 0x00, 0x00, 0x00, 0x00, 0x00, 0x00, 0x00, 0x00,
  0x00, 0x00, 0x00, 0x00, 0x00, 0x00, 0x00, 0x00, 0x00, 0x00, 0x00, 0x00,
  0x00, 0x00, 0x00, 0x00, 0x00, 0x00, 0x00, 0x00, 0x00, 0x00, 0x00, 0x00,
  0x00, 0x00, 0x00, 0x00, 0x00, 0x00, 0x00, 0x00, 0x00, 0x00, 0x00, 0x00,
  0x00, 0x00, 0x00, 0x00, 0xaa, 0xc9, 0xff, 0xff, 0x04, 0x00, 0x00, 0x00,
  0xc0, 0x2e, 0x00, 0x00, 0x7e, 0x7e, 0x7d, 0x73, 0x75, 0x78, 0x79, 0x7a,
  0x7b, 0x7c, 0x7c, 0x7c, 0x7c, 0x7c, 0x7c, 0x7c, 0x7b, 0x7b, 0x7b, 0x7b,
  0x7b, 0x7b, 0x7b, 0x7c, 0x7b, 0x7c, 0x7c, 0x7b, 0x7c, 0x7c, 0x7c, 0x7c,
  0x7c, 0x7c, 0x7c, 0x7c, 0x7c, 0x7b, 0x7b, 0x7b, 0x7b, 0x7b, 0x7b, 0x7b,
  0x7b, 0x7b, 0x7b, 0x7b, 0x7b, 0x7b, 0x7b, 0x7c, 0x7b, 0x7b, 0x7c, 0x7c,
  0x7c, 0x7c, 0x7c, 0x7c, 0x7c, 0x7c, 0x7c, 0x7c, 0x7c, 0x7c, 0x7c, 0x7c,
  0x7c, 0x7c, 0x7c, 0x7c, 0x7c, 0x7c, 0x7c, 0x7c, 0x7c, 0x7c, 0x7c, 0x7c,
  0x7c, 0x7b, 0x7b, 0x7b, 0x7b, 0x7b, 0x7b, 0x7b, 0x7a, 0x7a, 0x79, 0x79,
  0x79, 0x78, 0x77, 0x76, 0x75, 0x74, 0x73, 0x72, 0x71, 0x71, 0x70, 0x70,
  0x70, 0x71, 0x72, 0x73, 0x73, 0x74, 0x75, 0x75, 0x75, 0x75, 0x76, 0x75,
  0x75, 0x75, 0x75, 0x75, 0x75, 0x75, 0x75, 0x75, 0x75, 0x75, 0x75, 0x75,
  0x75, 0x74, 0x74, 0x74, 0x73, 0x73, 0x73, 0x72, 0x71, 0x71, 0x70, 0x6f,
  0x6e, 0x6c, 0x6b, 0x69, 0x68, 0x66, 0x65, 0x64, 0x62, 0x60, 0x5f, 0x5d,
  0x5c, 0x59, 0x57, 0x55, 0x53, 0x51, 0x50, 0x4f, 0x4e, 0x4d, 0x4d, 0x4d,
  0x4b, 0x49, 0x47, 0x44, 0x3f, 0x3a, 0x31, 0x27, 0x1d, 0x15, 0x0e, 0x05,
  0xfe, 0xf9, 0xf6, 0xf3, 0xf0, 0xef, 0xee, 0xec, 0xe9, 0xe6, 0xe5, 0x7e,
  0x7e, 0x7d, 0x74, 0x75, 0x78, 0x79, 0x7a, 0x7b, 0x7c, 0x7c, 0x7c, 0x7c,
  0x7c, 0x7c, 0x7c, 0x7b, 0x7b, 0x7b, 0x7b, 0x7b, 0x7b, 0x7b, 0x7b, 0x7b,
  0x7b, 0x7c, 0x7b, 0x7c, 0x7c, 0x7c, 0x7c, 0x7c, 0x7c, 0x7c, 0x7b, 0x7b,
  0x7c, 0x7b, 0x7b, 0x7b, 0x7b, 0x7b, 0x7b, 0x7b, 0x7b, 0x7b, 0x7b, 0x7b,
  0x7b, 0x7b, 0x7b, 0x7c, 0x7c, 0x7b, 0x7c, 0x7c, 0x7c, 0x7c, 0x7c, 0x7c,
  0x7c, 0x7c, 0x7c, 0x7c, 0x7c, 0x7c, 0x7c, 0x7c, 0x7c, 0x7c, 0x7c, 0x7c,
  0x7c, 0x7c, 0x7c, 0x7c, 0x7c, 0x7c, 0x7c, 0x7b, 0x7b, 0x7b, 0x7b, 0x7b,
  0x7b, 0x7a, 0x7a, 0x7a, 0x7a, 0x79, 0x79, 0x78, 0x78, 0x77, 0x76, 0x75,
  0x74, 0x73, 0x72, 0x71, 0x71, 0x70, 0x70, 0x70, 0x71, 0x71, 0x73, 0x73,
  0x74, 0x75, 0x75, 0x75, 0x75, 0x75, 0x75, 0x75, 0x75, 0x75, 0x75, 0x75,
  0x75, 0x75, 0x75, 0x75, 0x75, 0x75, 0x75, 0x74, 0x74, 0x74, 0x74, 0x73,
  0x73, 0x73, 0x72, 0x72, 0x71, 0x70, 0x6f, 0x6e, 0x6c, 0x6b, 0x69, 0x68,
  0x66, 0x65, 0x64, 0x62, 0x60, 0x5f, 0x5d, 0x5c, 0x59, 0x57, 0x55, 0x52,
  0x51, 0x50, 0x4f, 0x4e, 0x4d, 0x4d, 0x4c, 0x4b, 0x49, 0x47, 0x44, 0x40,
  0x39, 0x31, 0x27, 0x1d, 0x15, 0x0e, 0x05, 0xfe, 0xf9, 0xf6, 0xf3, 0xf0,
  0xf0, 0xee, 0xed, 0xe9, 0xe7, 0xe6, 0x7e, 0x7e, 0x7d, 0x73, 0x75, 0x78,
  0x79, 0x7a, 0x7b, 0x7c, 0x7d, 0x7c, 0x7c, 0x7c, 0x7c, 0x7c, 0x7c, 0x7c,
  0x7c, 0x7c, 0x7b, 0x7b, 0x7b, 0x7c, 0x7b, 0x7c, 0x7c, 0x7c, 0x7c, 0x7c,
  0x7c, 0x7c, 0x7c, 0x7c, 0x7c, 0x7c, 0x7c, 0x7c, 0x7c, 0x7b, 0x7b, 0x7b,
  0x7b, 0x7b, 0x7b, 0x7b, 0x7b, 0x7b, 0x7b, 0x7b, 0x7b, 0x7c, 0x7c, 0x7c,
  0x7c, 0x7c, 0x7c, 0x7c, 0x7c, 0x7c, 0x7c, 0x7c, 0x7c, 0x7c, 0x7c, 0x7c,
  0x7c, 0x7c, 0x7c, 0x7c, 0x7c, 0x7c, 0x7c, 0x7c, 0x7c, 0x7c, 0x7c, 0x7c,
  0x7c, 0x7c, 0x7c, 0x7c, 0x7c, 0x7b, 0x7b, 0x7b, 0x7b, 0x7b, 0x7a, 0x7a,
  0x79, 0x79, 0x79, 0x78, 0x77, 0x76, 0x75, 0x74, 0x73, 0x72, 0x71, 0x71,
  0x70, 0x70, 0x70, 0x71, 0x72, 0x73, 0x74, 0x74, 0x75, 0x75, 0x76, 0x76,
  0x75, 0x76, 0x75, 0x75, 0x75, 0x75, 0x75, 0x75, 0x76, 0x75, 0x75, 0x75,
  0x75, 0x75, 0x75, 0x74, 0x74, 0x74, 0x73, 0x73, 0x72, 0x72, 0x72, 0x71,
  0x70, 0x6f, 0x6e, 0x6c, 0x6b, 0x69, 0x68, 0x67, 0x65, 0x64, 0x62, 0x61,
  0x5f, 0x5d, 0x5c, 0x59, 0x57, 0x55, 0x53, 0x51, 0x50, 0x4f, 0x4e, 0x4d,
  0x4d, 0x4d, 0x4b, 0x49, 0x47, 0x44, 0x3f, 0x39, 0x31, 0x27, 0x1d, 0x15,
  0x0e, 0x05, 0xfe, 0xf9, 0xf6, 0xf3, 0xf0, 0xef, 0xee, 0xec, 0xe9, 0xe6,
  0xe5, 0x7e, 0x7e, 0x7d, 0x74, 0x75, 0x79, 0x79, 0x7a, 0x7b, 0x7c, 0x7c,
  0x7c, 0x7c, 0x7c, 0x7c, 0x7c, 0x7c, 0x7c, 0x7b, 0x7b, 0x7b, 0x7b, 0x7b,
  0x7b, 0x7b, 0x7b, 0x7c, 0x7c, 0x7c, 0x7c, 0x7c, 0x7c, 0x7c, 0x7c, 0x7c,
  0x7c, 0x7b, 0x7c, 0x7b, 0x7c, 0x7b, 0x7b, 0x7b, 0x7b, 0x7b, 0x7b, 0x7b,
  0x7b, 0x7b, 0x7b, 0x7c, 0x7b, 0x7b, 0x7c, 0x7c, 0x7c, 0x7c, 0x7c, 0x7c,
  0x7c, 0x7c, 0x7c, 0x7c, 0x7c, 0x7c, 0x7c, 0x7c, 0x7c, 0x7c, 0x7c, 0x7c,
  0x7c, 0x7c, 0x7c, 0x7c, 0x7c, 0x7c, 0x7c, 0x7c, 0x7c, 0x7c, 0x7b, 0x7b,
  0x7b, 0x7b, 0x7b, 0x7b, 0x7a, 0x7a, 0x7a, 0x79, 0x79, 0x78, 0x78, 0x78,
  0x76, 0x75, 0x74, 0x73, 0x72, 0x71, 0x71, 0x70, 0x70, 0x70, 0x71, 0x72,
  0x72, 0x73, 0x74, 0x75, 0x75, 0x75, 0x75, 0x75, 0x75, 0x75, 0x75, 0x75,
  0x75, 0x75, 0x76, 0x75, 0x75, 0x75, 0x75, 0x75, 0x75, 0x75, 0x75, 0x74,
  0x74, 0x73, 0x73, 0x72, 0x72, 0x71, 0x71, 0x70, 0x6f, 0x6e, 0x6c, 0x6b,
  0x69, 0x68, 0x66, 0x65, 0x63, 0x62, 0x60, 0x5f, 0x5d, 0x5b, 0x59, 0x57,
  0x55, 0x53, 0x51, 0x50, 0x4f, 0x4e, 0x4d, 0x4d, 0x4c, 0x4b, 0x49, 0x47,
  0x44, 0x3f, 0x39, 0x31, 0x27, 0x1d, 0x15, 0x0e, 0x05, 0xfe, 0xf9, 0xf6,
  0xf3, 0xf0, 0xf0, 0xee, 0xed, 0xe9, 0xe7, 0xe6, 0x7e, 0x7d, 0x7c, 0x73,
  0x74, 0x78, 0x78, 0x79, 0x7a, 0x7b, 0x7c, 0x7c, 0x7c, 0x7c, 0x7b, 0x7b,
  0x7b, 0x7b, 0x7b, 0x7b, 0x7b, 0x7b, 0x7b, 0x7b, 0x7b, 0x7b, 0x7b, 0x7b,
  0x7b, 0x7b, 0x7b, 0x7b, 0x7b, 0x7b, 0x7b, 0x7b, 0x7b, 0x7b, 0x7b, 0x7b,
  0x7b, 0x7b, 0x7b, 0x7a, 0x7a, 0x7a, 0x7a, 0x7b, 0x7b, 0x7b, 0x7b, 0x7b,
  0x7b, 0x7b, 0x7b, 0x7b, 0x7b, 0x7b, 0x7b, 0x7b, 0x7c, 0x7c, 0x7b, 0x7c,
  0x7c, 0x7c, 0x7b, 0x7b, 0x7c, 0x7c, 0x7b, 0x7b, 0x7b, 0x7b, 0x7b, 0x7b,
  0x7b, 0x7b, 0x7b, 0x7b, 0x7b, 0x7b, 0x7b, 0x7b, 0x7a, 0x7a, 0x7a, 0x7a,
  0x7a, 0x79, 0x79, 0x78, 0x78, 0x78, 0x77, 0x76, 0x75, 0x74, 0x72, 0x72,
  0x71, 0x70, 0x6f, 0x6f, 0x70, 0x70, 0x71, 0x72, 0x73, 0x74, 0x74, 0x75,
  0x75, 0x75, 0x75, 0x75, 0x74, 0x74, 0x74, 0x75, 0x75, 0x75, 0x75, 0x75,
  0x74, 0x74, 0x75, 0x74, 0x74, 0x74, 0x73, 0x73, 0x73, 0x72, 0x72, 0x71,
  0x71, 0x70, 0x6f, 0x6f, 0x6d, 0x6c, 0x6a, 0x69, 0x67, 0x66, 0x64, 0x63,
  0x61, 0x60, 0x5f, 0x5d, 0x5b, 0x59, 0x57, 0x54, 0x52, 0x51, 0x50, 0x4f,
  0x4d, 0x4d, 0x4d, 0x4c, 0x4b, 0x49, 0x47, 0x44, 0x3f, 0x39, 0x31, 0x27,
  0x1c, 0x15, 0x0e, 0x05, 0xfe, 0xf9, 0xf6, 0xf3, 0xf0, 0xf0, 0xee, 0xed,
  0xe9, 0xe7, 0xe6, 0x7e, 0x7e, 0x7d, 0x73, 0x75, 0x78, 0x79, 0x7a, 0x7b,
  0x7c, 0x7c, 0x7c, 0x7c, 0x7c, 0x7c, 0x7c, 0x7b, 0x7b, 0x7b, 0x7b, 0x7b,
  0x7b, 0x7b, 0x7b, 0x7b, 0x7b, 0x7b, 0x7c, 0x7c, 0x7c, 0x7b, 0x7c, 0x7b,
  0x7b, 0x7b, 0x7b, 0x7b, 0x7b, 0x7b, 0x7b, 0x7b, 0x7b, 0x7b, 0x7b, 0x7b,
  0x7b, 0x7b, 0x7b, 0x7b, 0x7b, 0x7b, 0x7b, 0x7b, 0x7b, 0x7c, 0x7c, 0x7b,
  0x7b, 0x7c, 0x7c, 0x7c, 0x7c, 0x7c, 0x7c, 0x7c, 0x7c, 0x7c, 0x7c, 0x7c,
  0x7c, 0x7c, 0x7c, 0x7c, 0x7c, 0x7c, 0x7c, 0x7c, 0x7c, 0x7c, 0x7c, 0x7c,
  0x7b, 0x7b, 0x7b, 0x7b, 0x7b, 0x7b, 0x7a, 0x7a, 0x79, 0x79, 0x79, 0x78,
  0x78, 0x77, 0x76, 0x75, 0x74, 0x73, 0x72, 0x71, 0x70, 0x70, 0x70, 0x70,
  0x71, 0x72, 0x72, 0x73, 0x74, 0x74, 0x75, 0x75, 0x75, 0x75, 0x75, 0x75,
  0x75, 0x75, 0x75, 0x75, 0x75, 0x75, 0x75, 0x75, 0x75, 0x75, 0x75, 0x75,
  0x74, 0x74, 0x74, 0x73, 0x73, 0x72, 0x72, 0x71, 0x71, 0x70, 0x6f, 0x6d,
  0x6c, 0x6b, 0x69, 0x67, 0x66, 0x65, 0x63, 0x61, 0x61, 0x5f, 0x5d, 0x5b,
  0x59, 0x57, 0x55, 0x52, 0x51, 0x50, 0x4f, 0x4e, 0x4d, 0x4d, 0x4d, 0x4b,
  0x49, 0x47, 0x44, 0x40, 0x39, 0x30, 0x27, 0x1d, 0x15, 0x0e, 0x06, 0xfe,
  0xf9, 0xf6, 0xf3, 0xf0, 0xf0, 0xee, 0xed, 0xe9, 0xe7, 0xe6, 0x7e, 0x7f,
  0x7d, 0x73, 0x75, 0x79, 0x79, 0x7a, 0x7b, 0x7c, 0x7c, 0x7c, 0x7c, 0x7c,
  0x7c, 0x7c, 0x7c, 0x7c, 0x7b, 0x7b, 0x7c, 0x7b, 0x7c, 0x7b, 0x7c, 0x7c,
  0x7c, 0x7c, 0x7c, 0x7c, 0x7c, 0x7c, 0x7c, 0x7c, 0x7c, 0x7c, 0x7c, 0x7c,
  0x7c, 0x7c, 0x7b, 0x7b, 0x7b, 0x7b, 0x7b, 0x7b, 0x7b, 0x7b, 0x7b, 0x7b,
  0x7c, 0x7c, 0x7c, 0x7c, 0x7c, 0x7c, 0x7c, 0x7c, 0x7c, 0x7c, 0x7c, 0x7c,
  0x7c, 0x7c, 0x7c, 0x7c, 0x7c, 0x7c, 0x7c, 0x7c, 0x7c, 0x7c, 0x7c, 0x7c,
  0x7c, 0x7c, 0x7c, 0x7c, 0x7c, 0x7c, 0x7c, 0x7c, 0x7b, 0x7b, 0x7b, 0x7b,
  0x7b, 0x7a, 0x7a, 0x7a, 0x79, 0x79, 0x79, 0x78, 0x77, 0x77, 0x76, 0x74,
  0x73, 0x72, 0x71, 0x71, 0x70, 0x70, 0x70, 0x71, 0x72, 0x72, 0x73, 0x74,
  0x75, 0x75, 0x76, 0x75, 0x75, 0x75, 0x75, 0x75, 0x75, 0x75, 0x76, 0x75,
  0x75, 0x75, 0x75, 0x75, 0x75, 0x75, 0x75, 0x74, 0x74, 0x74, 0x73, 0x73,
  0x72, 0x72, 0x71, 0x71, 0x70, 0x6f, 0x6e, 0x6d, 0x6b, 0x69, 0x68, 0x66,
  0x65, 0x64, 0x62, 0x61, 0x5f, 0x5d, 0x5c, 0x59, 0x57, 0x55, 0x52, 0x51,
  0x50, 0x4f, 0x4e, 0x4d, 0x4d, 0x4d, 0x4b, 0x49, 0x47, 0x44, 0x3f, 0x39,
  0x31, 0x27, 0x1d, 0x15, 0x0e, 0x06, 0xfe, 0xf9, 0xf6, 0xf3, 0xf0, 0xf0,
  0xee, 0xec, 0xe9, 0xe6, 0xe6, 0x7e, 0x7e, 0x7d, 0x73, 0x75, 0x79, 0x79,
  0x7a, 0x7b, 0x7c, 0x7c, 0x7c, 0x7c, 0x7c, 0x7c, 0x7c, 0x7c, 0x7b, 0x7c,
  0x7b, 0x7c, 0x7c, 0x7c, 0x7c, 0x7c, 0x7b, 0x7c, 0x7c, 0x7c, 0x7c, 0x7c,
  0x7c, 0x7c, 0x7c, 0x7c, 0x7c, 0x7b, 0x7c, 0x7c, 0x7b, 0x7b, 0x7b, 0x7b,
  0x7b, 0x7b, 0x7b, 0x7b, 0x7b, 0x7b, 0x7c, 0x7b, 0x7c, 0x7c, 0x7c, 0x7c,
  0x7c, 0x7c, 0x7c, 0x7c, 0x7c, 0x7c, 0x7c, 0x7c, 0x7c, 0x7c, 0x7c, 0x7c,
  0x7c, 0x7c, 0x7c, 0x7c, 0x7c, 0x7c, 0x7c, 0x7c, 0x7c, 0x7c, 0x7c, 0x7c,
  0x7c, 0x7c, 0x7b, 0x7c, 0x7b, 0x7b, 0x7b, 0x7b, 0x7a, 0x7a, 0x7a, 0x79,
  0x79, 0x79, 0x78, 0x77, 0x76, 0x76, 0x74, 0x73, 0x72, 0x71, 0x71, 0x70,
  0x70, 0x70, 0x71, 0x71, 0x72, 0x74, 0x74, 0x75, 0x75, 0x75, 0x75, 0x75,
  0x75, 0x75, 0x75, 0x75, 0x75, 0x75, 0x75, 0x75, 0x75, 0x75, 0x75, 0x75,
  0x75, 0x75, 0x75, 0x74, 0x74, 0x73, 0x73, 0x73, 0x72, 0x71, 0x71, 0x70,
  0x6f, 0x6e, 0x6c, 0x6b, 0x69, 0x68, 0x67, 0x65, 0x63, 0x62, 0x61, 0x5f,
  0x5d, 0x5c, 0x59, 0x57, 0x55, 0x53, 0x51, 0x50, 0x4f, 0x4e, 0x4d, 0x4d,
  0x4d, 0x4b, 0x49, 0x47, 0x44, 0x40, 0x39, 0x30, 0x27, 0x1c, 0x15, 0x0e,
  0x05, 0xfe, 0xf9, 0xf6, 0xf2, 0xf0, 0xf0, 0xee, 0xed, 0xe9, 0xe6, 0xe6,
  0x7f, 0x7f, 0x7d, 0x74, 0x75, 0x78, 0x79, 0x7a, 0x7b, 0x7c, 0x7c, 0x7d,
  0x7c, 0x7c, 0x7c, 0x7c, 0x7c, 0x7b, 0x7c, 0x7b, 0x7b, 0x7c, 0x7b, 0x7c,
  0x7b, 0x7c, 0x7c, 0x7c, 0x7c, 0x7c, 0x7c, 0x7c, 0x7c, 0x7c, 0x7c, 0x7c,
  0x7c, 0x7c, 0x7c, 0x7c, 0x7b, 0x7b, 0x7b, 0x7b, 0x7b, 0x7b, 0x7b, 0x7b,
  0x7b, 0x7b, 0x7c, 0x7c, 0x7c, 0x7c, 0x7c, 0x7c, 0x7c, 0x7c, 0x7c, 0x7c,
  0x7c, 0x7c, 0x7c, 0x7c, 0x7c, 0x7c, 0x7c, 0x7c, 0x7c, 0x7c, 0x7c, 0x7c,
  0x7c, 0x7c, 0x7c, 0x7c, 0x7c, 0x7c, 0x7c, 0x7c, 0x7c, 0x7c, 0x7c, 0x7b,
  0x7b, 0x7b, 0x7b, 0x7b, 0x7a, 0x7a, 0x79, 0x79, 0x79, 0x78, 0x77, 0x77,
  0x75, 0x74, 0x73, 0x72, 0x71, 0x71, 0x70, 0x70, 0x70, 0x71, 0x72, 0x73,
  0x74, 0x74, 0x75, 0x75, 0x75, 0x75, 0x75, 0x75, 0x75, 0x75, 0x75, 0x75,
  0x75, 0x76, 0x75, 0x75, 0x75, 0x75, 0x75, 0x75, 0x75, 0x74, 0x74, 0x74,
  0x73, 0x73, 0x73, 0x72, 0x71, 0x71, 0x70, 0x6f, 0x6e, 0x6c, 0x6b, 0x69,
  0x68, 0x66, 0x65, 0x63, 0x62, 0x60, 0x5f, 0x5d, 0x5b, 0x59, 0x57, 0x55,
  0x52, 0x51, 0x50, 0x4f, 0x4e, 0x4d, 0x4d, 0x4d, 0x4b, 0x49, 0x47, 0x44,
  0x3f, 0x39, 0x30, 0x27, 0x1d, 0x15, 0x0e, 0x05, 0xfe, 0xf9, 0xf6, 0xf2,
  0xf0, 0xef, 0xee, 0xed, 0xe9, 0xe6, 0xe5, 0x7e, 0x7e, 0x7d, 0x73, 0x75,
  0x78, 0x79, 0x7a, 0x7b, 0x7c, 0x7c, 0x7c, 0x7c, 0x7c, 0x7c, 0x7c, 0x7b,
  0x7b, 0x7b, 0x7b, 0x7b, 0x7b, 0x7b, 0x7b, 0x7b, 0x7b, 0x7b, 0x7b, 0x7c,
  0x7c, 0x7c, 0x7c, 0x7c, 0x7c, 0x7c, 0x7c, 0x7c, 0x7b, 0x7c, 0x7b, 0x7b,
  0x7b, 0x7b, 0x7b, 0x7b, 0x7b, 0x7b, 0x7b, 0x7b, 0x7b, 0x7b, 0x7c, 0x7c,
  0x7c, 0x7c, 0x7c, 0x7c, 0x7c, 0x7c, 0x7c, 0x7c, 0x7c, 0x7c, 0x7c, 0x7c,
  0x7c, 0x7c, 0x7c, 0x7c, 0x7c, 0x7c, 0x7c, 0x7c, 0x7c, 0x7c, 0x7c, 0x7c,
  0x7c, 0x7c, 0x7c, 0x7c, 0x7c, 0x7b, 0x7b, 0x7b, 0x7b, 0x7b, 0x7b, 0x7a,
  0x7a, 0x79, 0x79, 0x78, 0x78, 0x77, 0x77, 0x75, 0x74, 0x73, 0x72, 0x71,
  0x71, 0x70, 0x70, 0x70, 0x71, 0x72, 0x73, 0x74, 0x74, 0x75, 0x75, 0x75,
  0x76, 0x76, 0x75, 0x75, 0x75, 0x75, 0x75, 0x75, 0x75, 0x75, 0x75, 0x75,
  0x75, 0x75, 0x75, 0x75, 0x74, 0x74, 0x74, 0x73, 0x73, 0x72, 0x72, 0x71,
  0x71, 0x70, 0x6f, 0x6e, 0x6c, 0x6b, 0x69, 0x68, 0x66, 0x65, 0x64, 0x62,
  0x61, 0x5f, 0x5d, 0x5b, 0x59, 0x57, 0x55, 0x52, 0x51, 0x50, 0x4f, 0x4e,
  0x4d, 0x4d, 0x4c, 0x4a, 0x49, 0x47, 0x44, 0x3f, 0x39, 0x31, 0x27, 0x1c,
  0x14, 0x0e, 0x05, 0xfe, 0xf9, 0xf6, 0xf2, 0xf0, 0xef, 0xee, 0xec, 0xe9,
  0xe6, 0xe5, 0x7f, 0x7e, 0x7d, 0x74, 0x75, 0x79, 0x79, 0x7a, 0x7b, 0x7c,
  0x7d, 0x7d, 0x7d, 0x7c, 0x7c, 0x7c, 0x7c, 0x7c, 0x7b, 0x7b, 0x7b, 0x7c,
  0x7c, 0x7b, 0x7c, 0x7c, 0x7c, 0x7c, 0x7c, 0x7c, 0x7c, 0x7c, 0x7c, 0x7c,
  0x7c, 0x7c, 0x7c, 0x7c, 0x7c, 0x7b, 0x7c, 0x7b, 0x7b, 0x7b, 0x7b, 0x7b,
  0x7b, 0x7b, 0x7b, 0x7b, 0x7c, 0x7b, 0x7c, 0x7c, 0x7c, 0x7c, 0x7c, 0x7c,
  0x7c, 0x7c, 0x7c, 0x7c, 0x7c, 0x7c, 0x7c, 0x7c, 0x7c, 0x7c, 0x7c, 0x7c,
  0x7c, 0x7c, 0x7c, 0x7c, 0x7c, 0x7c, 0x7c, 0x7c, 0x7c, 0x7c, 0x7c, 0x7c,
  0x7c, 0x7b, 0x7b, 0x7b, 0x7b, 0x7b, 0x7a, 0x7a, 0x79, 0x79, 0x79, 0x78,
  0x77, 0x77, 0x75, 0x74, 0x73, 0x72, 0x71, 0x71, 0x70, 0x70, 0x70, 0x71,
  0x72, 0x73, 0x74, 0x74, 0x75, 0x75, 0x76, 0x76, 0x76, 0x75, 0x75, 0x75,
  0x75, 0x75, 0x75, 0x75, 0x76, 0x75, 0x75, 0x75, 0x75, 0x75, 0x75, 0x74,
  0x74, 0x74, 0x73, 0x73, 0x72, 0x72, 0x72, 0x71, 0x70, 0x6f, 0x6e, 0x6d,
  0x6b, 0x69, 0x68, 0x66, 0x65, 0x63, 0x62, 0x60, 0x5f, 0x5d, 0x5b, 0x59,
  0x57, 0x55, 0x53, 0x51, 0x50, 0x4f, 0x4e, 0x4d, 0x4d, 0x4d, 0x4b, 0x49,
  0x47, 0x44, 0x3f, 0x39, 0x31, 0x27, 0x1d, 0x15, 0x0e, 0x05, 0xfe, 0xf9,
  0xf6, 0xf3, 0xf0, 0xef, 0xee, 0xed, 0xe9, 0xe6, 0xe6, 0x00, 0x00, 0x00,
  0x00, 0x00, 0x00, 0x00, 0x00, 0x00, 0x00, 0x00, 0x00, 0x00, 0x00, 0x00,
  0x00, 0x00, 0x00, 0x00, 0x00, 0x00, 0x00, 0x00, 0x00, 0x00, 0x00, 0x00,
  0x00, 0x00, 0x00, 0x00, 0x00, 0x00, 0x00, 0x00, 0x00, 0x00, 0x00, 0x00,
  0x00, 0x00, 0x00, 0x00, 0x00, 0x00, 0x00, 0x00, 0x00, 0x00, 0x00, 0x00,
  0x00, 0x00, 0x00, 0x00, 0x00, 0x00, 0x00, 0x00, 0x00, 0x00, 0x00, 0x00,
  0x00, 0x00, 0x00, 0x00, 0x00, 0x00, 0x00, 0x00, 0x00, 0x00, 0x00, 0x00,
  0x00, 0x00, 0x00, 0x00, 0x00, 0x00, 0x00, 0x00, 0x00, 0x00, 0x00, 0x00,
  0x00, 0x00, 0x00, 0x00, 0x00, 0x00, 0x00, 0x00, 0x00, 0x00, 0x00, 0x00,
  0x00, 0x00, 0x00, 0x00, 0x00, 0x00, 0x00, 0x00, 0x00, 0x00, 0x00, 0x00,
  0x00, 0x00, 0x00, 0x00, 0x00, 0x00, 0x00, 0x00, 0x00, 0x00, 0x00, 0x00,
  0x00, 0x00, 0x00, 0x00, 0x00, 0x00, 0x00, 0x00, 0x00, 0x00, 0x00, 0x00,
  0x00, 0x00, 0x00, 0x00, 0x00, 0x00, 0x00, 0x00, 0x00, 0x00, 0x00, 0x00,
  0x00, 0x00, 0x00, 0x00, 0x00, 0x00, 0x00, 0x00, 0x00, 0x00, 0x00, 0x00,
  0x00, 0x00, 0x00, 0x00, 0x00, 0x00, 0x00, 0x00, 0x00, 0x00, 0x00, 0x00,
  0x00, 0x00, 0x00, 0x00, 0x00, 0x00, 0x00, 0x00, 0x00, 0x00, 0x00, 0x00,
  0x00, 0x00, 0x00, 0x00, 0x7e, 0x7e, 0x7d, 0x73, 0x75, 0x78, 0x79, 0x7a,
  0x7b, 0x7c, 0x7c, 0x7c, 0x7c, 0x7c, 0x7c, 0x7c, 0x7c, 0x7c, 0x7b, 0x7b,
  0x7b, 0x7b, 0x7b, 0x7b, 0x7b, 0x7c, 0x7b, 0x7b, 0x7c, 0x7b, 0x7c, 0x7c,
  0x7c, 0x7c, 0x7c, 0x7c, 0x7c, 0x7b, 0x7b, 0x7b, 0x7b, 0x7b, 0x7b, 0x7b,
  0x7b, 0x7b, 0x7b, 0x7b, 0x7b, 0x7b, 0x7b, 0x7b, 0x7c, 0x7c, 0x7c, 0x7c,
  0x7c, 0x7c, 0x7c, 0x7c, 0x7c, 0x7c, 0x7c, 0x7c, 0x7c, 0x7c, 0x7c, 0x7c,
  0x7c, 0x7c, 0x7c, 0x7c, 0x7c, 0x7c, 0x7c, 0x7c, 0x7c, 0x7c, 0x7b, 0x7c,
  0x7c, 0x7c, 0x7b, 0x7b, 0x7b, 0x7b, 0x7b, 0x7a, 0x7a, 0x7a, 0x79, 0x79,
  0x79, 0x78, 0x77, 0x76, 0x75, 0x74, 0x73, 0x72, 0x71, 0x71, 0x70, 0x70,
  0x70, 0x71, 0x71, 0x73, 0x73, 0x74, 0x75, 0x75, 0x75, 0x75, 0x75, 0x75,
  0x75, 0x75, 0x75, 0x75, 0x75, 0x75, 0x75, 0x75, 0x75, 0x75, 0x75, 0x75,
  0x74, 0x74, 0x74, 0x74, 0x73, 0x73, 0x72, 0x72, 0x71, 0x70, 0x70, 0x6f,
  0x6e, 0x6c, 0x6b, 0x69, 0x68, 0x66, 0x65, 0x63, 0x62, 0x60, 0x5f, 0x5d,
  0x5b, 0x59, 0x57, 0x55, 0x53, 0x51, 0x50, 0x4f, 0x4e, 0x4d, 0x4d, 0x4c,
  0x4a, 0x49, 0x47, 0x44, 0x3f, 0x39, 0x31, 0x27, 0x1d, 0x15, 0x0e, 0x06,
  0xfe, 0xf9, 0xf6, 0xf3, 0xf0, 0xf0, 0xee, 0xed, 0xe9, 0xe7, 0xe6, 0x7e,
  0x7e, 0x7d, 0x74, 0x75, 0x79, 0x79, 0x7a, 0x7b, 0x7c, 0x7c, 0x7c, 0x7c,
  0x7c, 0x7c, 0x7c, 0x7c, 0x7c, 0x7b, 0x7b, 0x7b, 0x7c, 0x7b, 0x7c, 0x7b,
  0x7c, 0x7b, 0x7c, 0x7c, 0x7c, 0x7c, 0x7c, 0x7c, 0x7c, 0x7c, 0x7b, 0x7c,
  0x7c, 0x7c, 0x7b, 0x7b, 0x7b, 0x7b, 0x7b, 0x7b, 0x7b, 0x7b, 0x7b, 0x7b,
  0x7b, 0x7b, 0x7b, 0x7c, 0x7c, 0x7c, 0x7c, 0x7c, 0x7c, 0x7c, 0x7c, 0x7c,
  0x7c, 0x7c, 0x7c, 0x7c, 0x7c, 0x7c, 0x7c, 0x7c, 0x7c, 0x7c, 0x7c, 0x7c,
  0x7c, 0x7c, 0x7c, 0x7c, 0x7c, 0x7c, 0x7c, 0x7c, 0x7c, 0x7b, 0x7b, 0x7b,
  0x7b, 0x7b, 0x7a, 0x7a, 0x7a, 0x79, 0x79, 0x79, 0x78, 0x77, 0x76, 0x76,
  0x74, 0x73, 0x72, 0x71, 0x71, 0x70, 0x70, 0x70, 0x71, 0x72, 0x72, 0x73,
  0x74, 0x75, 0x75, 0x76, 0x75, 0x76, 0x75, 0x75, 0x75, 0x75, 0x75, 0x75,
  0x75, 0x75, 0x75, 0x75, 0x75, 0x75, 0x75, 0x75, 0x74, 0x74, 0x74, 0x73,
  0x73, 0x73, 0x72, 0x72, 0x71, 0x70, 0x6f, 0x6d, 0x6c, 0x6b, 0x69, 0x68,
  0x66, 0x65, 0x64, 0x62, 0x61, 0x5f, 0x5d, 0x5c, 0x59, 0x57, 0x55, 0x53,
  0x51, 0x50, 0x4f, 0x4e, 0x4d, 0x4d, 0x4c, 0x4b, 0x49, 0x47, 0x44, 0x3f,
  0x39, 0x30, 0x27, 0x1c, 0x15, 0x0e, 0x05, 0xfe, 0xf9, 0xf5, 0xf2, 0xf0,
  0xef, 0xee, 0xec, 0xe9, 0xe6, 0xe5, 0x7e, 0x7e, 0x7d, 0x74, 0x75, 0x78,
  0x79, 0x7a, 0x7b, 0x7c, 0x7c, 0x7c, 0x7c, 0x7c, 0x7c, 0x7c, 0x7b, 0x7b,
  0x7b, 0x7b, 0x7b, 0x7b, 0x7b, 0x7b, 0x7b, 0x7b, 0x7b, 0x7c, 0x7b, 0x7c,
  0x7c, 0x7c, 0x7c, 0x7c, 0x7b, 0x7c, 0x7b, 0x7b, 0x7b, 0x7b, 0x7b, 0x7b,
  0x7b, 0x7b, 0x7b, 0x7b, 0x7b, 0x7b, 0x7b, 0x7b, 0x7b, 0x7b, 0x7c, 0x7c,
  0x7c, 0x7c, 0x7c, 0x7c, 0x7c, 0x7c, 0x7c, 0x7c, 0x7c, 0x7c, 0x7c, 0x7c,
  0x7c, 0x7c, 0x7c, 0x7c, 0x7c, 0x7c, 0x7c, 0x7c, 0x7c, 0x7c, 0x7c, 0x7c,
  0x7c, 0x7b, 0x7c, 0x7c, 0x7b, 0x7b, 0x7b, 0x7b, 0x7b, 0x7a, 0x7a, 0x7a,
  0x79, 0x79, 0x78, 0x78, 0x77, 0x76, 0x75, 0x74, 0x73, 0x72, 0x71, 0x71,
  0x70, 0x70, 0x70, 0x71, 0x72, 0x73, 0x73, 0x74, 0x75, 0x75, 0x75, 0x75,
  0x75, 0x75, 0x75, 0x75, 0x75, 0x75, 0x75, 0x75, 0x76, 0x75, 0x75, 0x75,
  0x75, 0x75, 0x75, 0x74, 0x74, 0x74, 0x73, 0x73, 0x72, 0x72, 0x71, 0x71,
  0x70, 0x6f, 0x6d, 0x6c, 0x6b, 0x69, 0x67, 0x66, 0x65, 0x63, 0x61, 0x60,
  0x5f, 0x5d, 0x5b, 0x59, 0x57, 0x55, 0x52, 0x51, 0x50, 0x4f, 0x4e, 0x4d,
  0x4d, 0x4d, 0x4b, 0x49, 0x47, 0x44, 0x3f, 0x39, 0x30, 0x27, 0x1c, 0x15,
  0x0e, 0x05, 0xfe, 0xf9, 0xf5, 0xf2, 0xf0, 0xef, 0xee, 0xed, 0xe9, 0xe6,
  0xe5, 0x7e, 0x7e, 0x7d, 0x73, 0x75, 0x78, 0x79, 0x7a, 0x7b, 0x7c, 0x7c,
  0x7c, 0x7c, 0x7c, 0x7c, 0x7c, 0x7c, 0x7b, 0x7b, 0x7b, 0x7b, 0x7b, 0x7b,
  0x7b, 0x7b, 0x7b, 0x7c, 0x7c, 0x7c, 0x7b, 0x7c, 0x7c, 0x7c, 0x7c, 0x7c,
  0x7c, 0x7c, 0x7b, 0x7b, 0x7b, 0x7b, 0x7b, 0x7b, 0x7b, 0x7b, 0x7b, 0x7b,
  0x7b, 0x7b, 0x7b, 0x7b, 0x7c, 0x7b, 0x7c, 0x7c, 0x7c, 0x7c, 0x7c, 0x7c,
  0x7c, 0x7c, 0x7c, 0x7c, 0x7c, 0x7c, 0x7c, 0x7c, 0x7c, 0x7c, 0x7c, 0x7c,
  0x7c, 0x7c, 0x7c, 0x7c, 0x7c, 0x7b, 0x7c, 0x7c, 0x7b, 0x7c, 0x7b, 0x7b,
  0x7b, 0x7b, 0x7b, 0x7b, 0x7a, 0x7a, 0x79, 0x79, 0x79, 0x78, 0x78, 0x77,
  0x76, 0x75, 0x74, 0x73, 0x72, 0x71, 0x70, 0x70, 0x70, 0x70, 0x71, 0x72,
  0x73, 0x73, 0x74, 0x75, 0x75, 0x75, 0x76, 0x75, 0x75, 0x75, 0x75, 0x75,
  0x75, 0x75, 0x75, 0x75, 0x75, 0x75, 0x75, 0x75, 0x75, 0x75, 0x74, 0x74,
  0x74, 0x73, 0x73, 0x72, 0x72, 0x71, 0x71, 0x70, 0x6f, 0x6e, 0x6c, 0x6b,
  0x69, 0x68, 0x66, 0x65, 0x64, 0x62, 0x60, 0x5f, 0x5d, 0x5b, 0x59, 0x57,
  0x55, 0x52, 0x51, 0x50, 0x4f, 0x4d, 0x4d, 0x4d, 0x4c, 0x4a, 0x49, 0x47,
  0x44, 0x3f, 0x39, 0x30, 0x27, 0x1d, 0x15, 0x0e, 0x05, 0xfe, 0xf9, 0xf6,
  0xf2, 0xf0, 0xef, 0xee, 0xed, 0xe9, 0xe6, 0xe5, 0x00, 0x00, 0x00, 0x00,
  0x00, 0x00, 0x00, 0x00, 0x00, 0x00, 0x00, 0x00, 0x00, 0x00, 0x00, 0x00,
  0x00, 0x00, 0x00, 0x00, 0x00, 0x00, 0x00, 0x00, 0x00, 0x00, 0x00, 0x00,
  0x00, 0x00, 0x00, 0x00, 0x00, 0x00, 0x00, 0x00, 0x00, 0x00, 0x00, 0x00,
  0x00, 0x00, 0x00, 0x00, 0x00, 0x00, 0x00, 0x00, 0x00, 0x00, 0x00, 0x00,
  0x00, 0x00, 0x00, 0x00, 0x00, 0x00, 0x00, 0x00, 0x00, 0x00, 0x00, 0x00,
  0x00, 0x00, 0x00, 0x00, 0x00, 0x00, 0x00, 0x00, 0x00, 0x00, 0x00, 0x00,
  0x00, 0x00, 0x00, 0x00, 0x00, 0x00, 0x00, 0x00, 0x00, 0x00, 0x00, 0x00,
  0x00, 0x00, 0x00, 0x00, 0x00, 0x00, 0x00, 0x00, 0x00, 0x00, 0x00, 0x00,
  0x00, 0x00, 0x00, 0x00, 0x00, 0x00, 0x00, 0x00, 0x00, 0x00, 0x00, 0x00,
  0x00, 0x00, 0x00, 0x00, 0x00, 0x00, 0x00, 0x00, 0x00, 0x00, 0x00, 0x00,
  0x00, 0x00, 0x00, 0x00, 0x00, 0x00, 0x00, 0x00, 0x00, 0x00, 0x00, 0x00,
  0x00, 0x00, 0x00, 0x00, 0x00, 0x00, 0x00, 0x00, 0x00, 0x00, 0x00, 0x00,
  0x00, 0x00, 0x00, 0x00, 0x00, 0x00, 0x00, 0x00, 0x00, 0x00, 0x00, 0x00,
  0x00, 0x00, 0x00, 0x00, 0x00, 0x00, 0x00, 0x00, 0x00, 0x00, 0x00, 0x00,
  0x00, 0x00, 0x00, 0x00, 0x00, 0x00, 0x00, 0x00, 0x00, 0x00, 0x00, 0x00,
  0x00, 0x00, 0x00, 0x7f, 0x7e, 0x7d, 0x74, 0x75, 0x79, 0x79, 0x7a, 0x7b,
  0x7c, 0x7d, 0x7c, 0x7c, 0x7c, 0x7c, 0x7c, 0x7c, 0x7b, 0x7c, 0x7c, 0x7b,
  0x7b, 0x7c, 0x7c, 0x7b, 0x7c, 0x7c, 0x7c, 0x7c, 0x7c, 0x7c, 0x7c, 0x7c,
  0x7c, 0x7c, 0x7c, 0x7c, 0x7c, 0x7c, 0x7b, 0x7b, 0x7b, 0x7b, 0x7b, 0x7b,
  0x7b, 0x7b, 0x7b, 0x7b, 0x7b, 0x7b, 0x7b, 0x7c, 0x7c, 0x7c, 0x7c, 0x7c,
  0x7c, 0x7c, 0x7c, 0x7c, 0x7c, 0x7c, 0x7c, 0x7c, 0x7c, 0x7c, 0x7c, 0x7c,
  0x7c, 0x7c, 0x7c, 0x7c, 0x7c, 0x7c, 0x7c, 0x7c, 0x7c, 0x7c, 0x7c, 0x7c,
  0x7c, 0x7c, 0x7c, 0x7b, 0x7b, 0x7b, 0x7a, 0x7a, 0x7a, 0x79, 0x79, 0x79,
  0x78, 0x78, 0x77, 0x76, 0x74, 0x73, 0x72, 0x72, 0x71, 0x70, 0x70, 0x70,
  0x71, 0x72, 0x73, 0x74, 0x74, 0x75, 0x75, 0x76, 0x76, 0x76, 0x75, 0x75,
  0x75, 0x75, 0x75, 0x75, 0x76, 0x75, 0x75, 0x75, 0x75, 0x75, 0x75, 0x75,
  0x75, 0x74, 0x74, 0x73, 0x73, 0x73, 0x72, 0x71, 0x71, 0x70, 0x6f, 0x6e,
  0x6d, 0x6b, 0x69, 0x68, 0x66, 0x65, 0x64, 0x62, 0x60, 0x5f, 0x5d, 0x5b,
  0x59, 0x57, 0x55, 0x52, 0x51, 0x50, 0x4f, 0x4e, 0x4d, 0x4d, 0x4c, 0x4b,
  0x49, 0x47, 0x44, 0x3f, 0x39, 0x30, 0x27, 0x1d, 0x15, 0x0e, 0x05, 0xfe,
  0xf9, 0xf6, 0xf3, 0xf0, 0xf0, 0xee, 0xed, 0xe9, 0xe6, 0xe5, 0x7f, 0x7e,
  0x7d, 0x74, 0x75, 0x78, 0x79, 0x7a, 0x7b, 0x7c, 0x7c, 0x7d, 0x7c, 0x7c,
  0x7c, 0x7c, 0x7c, 0x7c, 0x7c, 0x7b, 0x7b, 0x7b, 0x7b, 0x7b, 0x7c, 0x7c,
  0x7b, 0x7c, 0x7c, 0x7c, 0x7c, 0x7c, 0x7c, 0x7c, 0x7c, 0x7c, 0x7c, 0x7c,
  0x7c, 0x7b, 0x7b, 0x7b, 0x7b, 0x7b, 0x7b, 0x7b, 0x7b, 0x7b, 0x7b, 0x7b,
  0x7b, 0x7c, 0x7c, 0x7c, 0x7c, 0x7c, 0x7c, 0x7c, 0x7c, 0x7c, 0x7c, 0x7c,
  0x7c, 0x7c, 0x7c, 0x7c, 0x7c, 0x7c, 0x7c, 0x7c, 0x7c, 0x7c, 0x7c, 0x7c,
  0x7c, 0x7c, 0x7c, 0x7c, 0x7c, 0x7c, 0x7c, 0x7c, 0x7c, 0x7b, 0x7b, 0x7b,
  0x7b, 0x7b, 0x7a, 0x7a, 0x79, 0x79, 0x78, 0x78, 0x77, 0x77, 0x75, 0x74,
  0x73, 0x72, 0x71, 0x71, 0x70, 0x70, 0x70, 0x71, 0x72, 0x73, 0x73, 0x74,
  0x75, 0x75, 0x75, 0x75, 0x75, 0x75, 0x75, 0x75, 0x75, 0x75, 0x75, 0x76,
  0x75, 0x75, 0x75, 0x75, 0x75, 0x75, 0x75, 0x74, 0x74, 0x74, 0x73, 0x73,
  0x72, 0x72, 0x72, 0x71, 0x70, 0x6f, 0x6e, 0x6c, 0x6b, 0x6a, 0x68, 0x66,
  0x65, 0x63, 0x62, 0x61, 0x5f, 0x5d, 0x5c, 0x59, 0x57, 0x55, 0x53, 0x51,
  0x50, 0x4f, 0x4e, 0x4d, 0x4d, 0x4d, 0x4b, 0x49, 0x47, 0x44, 0x40, 0x39,
  0x30, 0x27, 0x1d, 0x15, 0x0e, 0x05, 0xfe, 0xf9, 0xf6, 0xf3, 0xf0, 0xf0,
  0xef, 0xed, 0xe9, 0xe6, 0xe5, 0x7e, 0x7e, 0x7d, 0x73, 0x75, 0x78, 0x79,
  0x7a, 0x7b, 0x7b, 0x7c, 0x7c, 0x7c, 0x7c, 0x7c, 0x7c, 0x7c, 0x7b, 0x7b,
  0x7b, 0x7b, 0x7b, 0x7b, 0x7b, 0x7b, 0x7b, 0x7b, 0x7c, 0x7c, 0x7c, 0x7c,
  0x7c, 0x7c, 0x7b, 0x7c, 0x7c, 0x7c, 0x7c, 0x7b, 0x7b, 0x7b, 0x7b, 0x7b,
  0x7b, 0x7b, 0x7b, 0x7b, 0x7b, 0x7b, 0x7b, 0x7b, 0x7b, 0x7b, 0x7b, 0x7c,
  0x7c, 0x7c, 0x7c, 0x7c, 0x7c, 0x7c, 0x7c, 0x7c, 0x7c, 0x7c, 0x7c, 0x7c,
  0x7c, 0x7c, 0x7c, 0x7c, 0x7c, 0x7c, 0x7c, 0x7c, 0x7c, 0x7b, 0x7b, 0x7c,
  0x7c, 0x7c, 0x7b, 0x7b, 0x7b, 0x7b, 0x7b, 0x7b, 0x7a, 0x7a, 0x79, 0x79,
  0x79, 0x78, 0x78, 0x77, 0x76, 0x76, 0x74, 0x73, 0x72, 0x71, 0x71, 0x70,
  0x70, 0x70, 0x71, 0x72, 0x72, 0x73, 0x74, 0x75, 0x75, 0x75, 0x75, 0x75,
  0x75, 0x75, 0x75, 0x75, 0x75, 0x75, 0x75, 0x75, 0x75, 0x75, 0x75, 0x75,
  0x75, 0x75, 0x74, 0x74, 0x74, 0x73, 0x73, 0x72, 0x72, 0x71, 0x71, 0x70,
  0x6f, 0x6e, 0x6c, 0x6b, 0x69, 0x67, 0x66, 0x65, 0x63, 0x62, 0x60, 0x5f,
  0x5d, 0x5b, 0x59, 0x57, 0x55, 0x52, 0x51, 0x50, 0x4f, 0x4d, 0x4d, 0x4d,
  0x4c, 0x4a, 0x49, 0x47, 0x44, 0x3f, 0x39, 0x30, 0x27, 0x1c, 0x15, 0x0e,
  0x05, 0xfe, 0xf9, 0xf6, 0xf3, 0xf0, 0xef, 0xee, 0xed, 0xe9, 0xe6, 0xe5,
  0x7e, 0x7e, 0x7d, 0x74, 0x75, 0x79, 0x79, 0x7a, 0x7b, 0x7c, 0x7c, 0x7d,
  0x7d, 0x7c, 0x7c, 0x7c, 0x7c, 0x7c, 0x7c, 0x7b, 0x7b, 0x7c, 0x7b, 0x7b,
  0x7b, 0x7c, 0x7b, 0x7c, 0x7c, 0x7c, 0x7c, 0x7c, 0x7c, 0x7c, 0x7c, 0x7c,
  0x7c, 0x7b, 0x7c, 0x7b, 0x7b, 0x7b, 0x7b, 0x7b, 0x7b, 0x7b, 0x7b, 0x7b,
  0x7b, 0x7b, 0x7b, 0x7b, 0x7c, 0x7c, 0x7c, 0x7c, 0x7c, 0x7c, 0x7c, 0x7c,
  0x7c, 0x7c, 0x7c, 0x7c, 0x7c, 0x7c, 0x7c, 0x7c, 0x7c, 0x7c, 0x7c, 0x7c,
  0x7c, 0x7c, 0x7c, 0x7c, 0x7c, 0x7c, 0x7c, 0x7c, 0x7c, 0x7c, 0x7c, 0x7b,
  0x7b, 0x7b, 0x7b, 0x7b, 0x7a, 0x7a, 0x79, 0x79, 0x79, 0x78, 0x77, 0x76,
  0x75, 0x74, 0x73, 0x72, 0x71, 0x71, 0x70, 0x70, 0x70, 0x71, 0x72, 0x72,
  0x73, 0x74, 0x75, 0x75, 0x75, 0x75, 0x75, 0x75, 0x75, 0x75, 0x75, 0x75,
  0x75, 0x75, 0x76, 0x75, 0x75, 0x75, 0x75, 0x75, 0x75, 0x75, 0x74, 0x74,
  0x73, 0x73, 0x72, 0x72, 0x71, 0x71, 0x70, 0x6f, 0x6e, 0x6c, 0x6b, 0x69,
  0x68, 0x66, 0x65, 0x64, 0x62, 0x61, 0x5f, 0x5d, 0x5b, 0x59, 0x57, 0x55,
  0x52, 0x51, 0x50, 0x4f, 0x4e, 0x4d, 0x4d, 0x4d, 0x4b, 0x49, 0x47, 0x44,
  0x40, 0x3a, 0x30, 0x28, 0x1d, 0x15, 0x0e, 0x06, 0xfe, 0xf9, 0xf6, 0xf3,
  0xf0, 0xf0, 0xee, 0xed, 0xe9, 0xe6, 0xe6, 0x7e, 0x7e, 0x7d, 0x74, 0x75,
  0x78, 0x79, 0x7a, 0x7b, 0x7c, 0x7c, 0x7c, 0x7c, 0x7c, 0x7c, 0x7c, 0x7c,
  0x7b, 0x7b, 0x7b, 0x7b, 0x7c, 0x7c, 0x7c, 0x7b, 0x7c, 0x7c, 0x7c, 0x7c,
  0x7c, 0x7c, 0x7c, 0x7c, 0x7c, 0x7c, 0x7c, 0x7c, 0x7c, 0x7c, 0x7b, 0x7c,
  0x7b, 0x7b, 0x7b, 0x7b, 0x7b, 0x7b, 0x7b, 0x7b, 0x7b, 0x7c, 0x7b, 0x7c,
  0x7c, 0x7c, 0x7c, 0x7c, 0x7c, 0x7c, 0x7c, 0x7c, 0x7c, 0x7c, 0x7c, 0x7c,
  0x7c, 0x7c, 0x7c, 0x7c, 0x7c, 0x7c, 0x7c, 0x7c, 0x7c, 0x7c, 0x7c, 0x7c,
  0x7c, 0x7c, 0x7c, 0x7c, 0x7c, 0x7c, 0x7b, 0x7b, 0x7b, 0x7b, 0x7a, 0x7a,
  0x7a, 0x7a, 0x79, 0x79, 0x78, 0x77, 0x77, 0x76, 0x74, 0x73, 0x72, 0x71,
  0x71, 0x70, 0x70, 0x70, 0x71, 0x72, 0x73, 0x73, 0x74, 0x75, 0x75, 0x76,
  0x76, 0x76, 0x75, 0x75, 0x75, 0x75, 0x75, 0x75, 0x76, 0x76, 0x75, 0x75,
  0x75, 0x75, 0x75, 0x75, 0x75, 0x74, 0x74, 0x73, 0x73, 0x73, 0x72, 0x71,
  0x71, 0x70, 0x6f, 0x6e, 0x6d, 0x6b, 0x69, 0x68, 0x66, 0x65, 0x64, 0x62,
  0x60, 0x5f, 0x5d, 0x5c, 0x59, 0x57, 0x55, 0x53, 0x51, 0x50, 0x4f, 0x4e,
  0x4d, 0x4d, 0x4d, 0x4b, 0x49, 0x47, 0x44, 0x40, 0x39, 0x31, 0x27, 0x1d,
  0x15, 0x0e, 0x05, 0xfe, 0xf9, 0xf6, 0xf3, 0xf0, 0xf0, 0xee, 0xed, 0xe9,
